<pad>	0
<s>	0
</s>	0
<unk>	0
<0x00>	0
<0x01>	0
<0x02>	0
<0x03>	0
<0x04>	0
<0x05>	0
<0x06>	0
<0x07>	0
<0x08>	0
<0x09>	0
<0x0A>	0
<0x0B>	0
<0x0C>	0
<0x0D>	0
<0x0E>	0
<0x0F>	0
<0x10>	0
<0x11>	0
<0x12>	0
<0x13>	0
<0x14>	0
<0x15>	0
<0x16>	0
<0x17>	0
<0x18>	0
<0x19>	0
<0x1A>	0
<0x1B>	0
<0x1C>	0
<0x1D>	0
<0x1E>	0
<0x1F>	0
<0x20>	0
<0x21>	0
<0x22>	0
<0x23>	0
<0x24>	0
<0x25>	0
<0x26>	0
<0x27>	0
<0x28>	0
<0x29>	0
<0x2A>	0
<0x2B>	0
<0x2C>	0
<0x2D>	0
<0x2E>	0
<0x2F>	0
<0x30>	0
<0x31>	0
<0x32>	0
<0x33>	0
<0x34>	0
<0x35>	0
<0x36>	0
<0x37>	0
<0x38>	0
<0x39>	0
<0x3A>	0
<0x3B>	0
<0x3C>	0
<0x3D>	0
<0x3E>	0
<0x3F>	0
<0x40>	0
<0x41>	0
<0x42>	0
<0x43>	0
<0x44>	0
<0x45>	0
<0x46>	0
<0x47>	0
<0x48>	0
<0x49>	0
<0x4A>	0
<0x4B>	0
<0x4C>	0
<0x4D>	0
<0x4E>	0
<0x4F>	0
<0x50>	0
<0x51>	0
<0x52>	0
<0x53>	0
<0x54>	0
<0x55>	0
<0x56>	0
<0x57>	0
<0x58>	0
<0x59>	0
<0x5A>	0
<0x5B>	0
<0x5C>	0
<0x5D>	0
<0x5E>	0
<0x5F>	0
<0x60>	0
<0x61>	0
<0x62>	0
<0x63>	0
<0x64>	0
<0x65>	0
<0x66>	0
<0x67>	0
<0x68>	0
<0x69>	0
<0x6A>	0
<0x6B>	0
<0x6C>	0
<0x6D>	0
<0x6E>	0
<0x6F>	0
<0x70>	0
<0x71>	0
<0x72>	0
<0x73>	0
<0x74>	0
<0x75>	0
<0x76>	0
<0x77>	0
<0x78>	0
<0x79>	0
<0x7A>	0
<0x7B>	0
<0x7C>	0
<0x7D>	0
<0x7E>	0
<0x7F>	0
<0x80>	0
<0x81>	0
<0x82>	0
<0x83>	0
<0x84>	0
<0x85>	0
<0x86>	0
<0x87>	0
<0x88>	0
<0x89>	0
<0x8A>	0
<0x8B>	0
<0x8C>	0
<0x8D>	0
<0x8E>	0
<0x8F>	0
<0x90>	0
<0x91>	0
<0x92>	0
<0x93>	0
<0x94>	0
<0x95>	0
<0x96>	0
<0x97>	0
<0x98>	0
<0x99>	0
<0x9A>	0
<0x9B>	0
<0x9C>	0
<0x9D>	0
<0x9E>	0
<0x9F>	0
<0xA0>	0
<0xA1>	0
<0xA2>	0
<0xA3>	0
<0xA4>	0
<0xA5>	0
<0xA6>	0
<0xA7>	0
<0xA8>	0
<0xA9>	0
<0xAA>	0
<0xAB>	0
<0xAC>	0
<0xAD>	0
<0xAE>	0
<0xAF>	0
<0xB0>	0
<0xB1>	0
<0xB2>	0
<0xB3>	0
<0xB4>	0
<0xB5>	0
<0xB6>	0
<0xB7>	0
<0xB8>	0
<0xB9>	0
<0xBA>	0
<0xBB>	0
<0xBC>	0
<0xBD>	0
<0xBE>	0
<0xBF>	0
<0xC0>	0
<0xC1>	0
<0xC2>	0
<0xC3>	0
<0xC4>	0
<0xC5>	0
<0xC6>	0
<0xC7>	0
<0xC8>	0
<0xC9>	0
<0xCA>	0
<0xCB>	0
<0xCC>	0
<0xCD>	0
<0xCE>	0
<0xCF>	0
<0xD0>	0
<0xD1>	0
<0xD2>	0
<0xD3>	0
<0xD4>	0
<0xD5>	0
<0xD6>	0
<0xD7>	0
<0xD8>	0
<0xD9>	0
<0xDA>	0
<0xDB>	0
<0xDC>	0
<0xDD>	0
<0xDE>	0
<0xDF>	0
<0xE0>	0
<0xE1>	0
<0xE2>	0
<0xE3>	0
<0xE4>	0
<0xE5>	0
<0xE6>	0
<0xE7>	0
<0xE8>	0
<0xE9>	0
<0xEA>	0
<0xEB>	0
<0xEC>	0
<0xED>	0
<0xEE>	0
<0xEF>	0
<0xF0>	0
<0xF1>	0
<0xF2>	0
<0xF3>	0
<0xF4>	0
<0xF5>	0
<0xF6>	0
<0xF7>	0
<0xF8>	0
<0xF9>	0
<0xFA>	0
<0xFB>	0
<0xFC>	0
<0xFD>	0
<0xFE>	0
<0xFF>	0
▁t	-0
he	-1
▁a	-2
in	-3
▁the	-4
on	-5
re	-6
▁s	-7
er	-8
▁o	-9
at	-10
▁w	-11
en	-12
an	-13
▁c	-14
it	-15
▁p	-16
or	-17
is	-18
ed	-19
▁of	-20
▁b	-21
▁f	-22
es	-23
▁an	-24
al	-25
ing	-26
▁in	-27
ar	-28
ion	-29
▁to	-30
ou	-31
▁m	-32
ic	-33
▁and	-34
▁d	-35
as	-36
ent	-37
ro	-38
▁h	-39
le	-40
▁th	-41
▁re	-42
il	-43
▁e	-44
ct	-45
▁I	-46
om	-47
ation	-48
▁be	-49
▁이	-50
ve	-51
▁is	-52
st	-53
▁l	-54
▁T	-55
▁있	-56
▁n	-57
id	-58
ce	-59
un	-60
▁S	-61
▁g	-62
▁1	-63
ol	-64
im	-65
▁for	-66
ut	-67
▁that	-68
et	-69
▁on	-70
▁A	-71
▁C	-72
ly	-73
으로	-74
ment	-75
us	-76
▁2	-77
ch	-78
▁수	-79
ur	-80
▁K	-81
ore	-82
ot	-83
ay	-84
ad	-85
ers	-86
▁The	-87
▁대	-88
▁y	-89
에서	-90
▁wh	-91
▁사	-92
▁pro	-93
ong	-94
ig	-95
ir	-96
am	-97
▁지	-98
▁it	-99
▁st	-100
ill	-101
▁as	-102
ith	-103
ul	-104
▁P	-105
th	-106
ow	-107
▁con	-108
▁he	-109
▁with	-110
▁한	-111
▁G	-112
ter	-113
ver	-114
▁M	-115
▁것	-116
▁ex	-117
el	-118
▁가	-119
▁기	-120
▁com	-121
▁전	-122
니다	-123
▁su	-124
oun	-125
▁was	-126
▁그	-127
▁are	-128
▁at	-129
하는	-130
em	-131
est	-132
▁경	-133
ge	-134
ec	-135
▁by	-136
▁시	-137
if	-138
했다	-139
▁sh	-140
op	-141
▁제	-142
ies	-143
iv	-144
art	-145
ial	-146
os	-147
pp	-148
ra	-149
▁있다	-150
ate	-151
res	-152
▁will	-153
▁등	-154
▁H	-155
ort	-156
▁you	-157
ist	-158
all	-159
ess	-160
▁D	-161
ity	-162
▁보	-163
ect	-164
▁"	-165
▁위	-166
00	-167
▁정	-168
ld	-169
▁v	-170
▁Kore	-171
▁al	-172
ear	-173
▁J	-174
ere	-175
ive	-176
her	-177
▁주	-178
하고	-179
oc	-180
▁ha	-181
ak	-182
▁아	-183
▁In	-184
oo	-185
du	-186
▁나	-187
ud	-188
▁or	-189
ang	-190
▁공	-191
▁W	-192
rom	-193
▁다	-194
▁3	-195
▁중	-196
um	-197
▁B	-198
▁자	-199
▁N	-200
and	-201
▁r	-202
ice	-203
ant	-204
ee	-205
▁ch	-206
▁관	-207
ain	-208
▁from	-209
▁comp	-210
▁인	-211
▁have	-212
end	-213
ac	-214
ab	-215
▁not	-216
iz	-217
▁일	-218
igh	-219
▁부	-220
ich	-221
▁has	-222
▁‘	-223
▁“	-224
▁exp	-225
▁L	-226
▁un	-227
▁F	-228
이다	-229
▁which	-230
▁ne	-231
▁E	-232
▁de	-233
▁(	-234
ure	-235
▁하	-236
▁who	-237
▁whe	-238
▁내	-239
qu	-240
ous	-241
▁pl	-242
▁res	-243
ast	-244
▁me	-245
▁상	-246
▁조	-247
ri	-248
▁le	-249
▁20	-250
ye	-251
ult	-252
▁Ch	-253
습니다	-254
▁wor	-255
age	-256
▁구	-257
▁inc	-258
▁sa	-259
ance	-260
▁국	-261
▁해	-262
ated	-263
▁있는	-264
들이	-265
▁year	-266
▁this	-267
▁can	-268
ry	-269
ary	-270
▁go	-271
▁의	-272
▁소	-273
gh	-274
▁오	-275
▁도	-276
are	-277
▁Y	-278
der	-279
▁모	-280
▁U	-281
▁Korea	-282
▁but	-283
ff	-284
use	-285
ime	-286
▁비	-287
cc	-288
▁어	-289
▁5	-290
▁여	-291
▁O	-292
▁우	-293
▁고	-294
ip	-295
▁sp	-296
ard	-297
▁서	-298
▁유	-299
▁R	-300
▁않	-301
out	-302
▁미	-303
ue	-304
ould	-305
▁ab	-306
up	-307
ident	-308
ung	-309
ction	-310
fter	-311
▁4	-312
▁개	-313
ber	-314
▁se	-315
▁때	-316
▁ad	-317
▁Se	-318
▁연	-319
ough	-320
vern	-321
▁발	-322
ase	-323
ark	-324
▁int	-325
▁선	-326
ust	-327
ans	-328
▁없	-329
ition	-330
▁당	-331
▁man	-332
하여	-333
▁off	-334
▁신	-335
▁im	-336
▁It	-337
ap	-338
▁said	-339
▁part	-340
ens	-341
ire	-342
orm	-343
에는	-344
ight	-345
▁만	-346
▁cont	-347
▁dis	-348
▁예	-349
▁j	-350
▁마	-351
▁k	-352
▁문	-353
ag	-354
ince	-355
한다	-356
ome	-357
▁최	-358
▁방	-359
port	-360
▁한다	-361
our	-362
▁따	-363
▁ag	-364
▁통	-365
▁so	-366
lic	-367
yeong	-368
ount	-369
▁been	-370
▁tr	-371
에게	-372
▁per	-373
▁there	-374
▁bec	-375
▁안	-376
▁말	-377
▁app	-378
▁shall	-379
ub	-380
▁were	-381
per	-382
▁time	-383
ie	-384
ost	-385
ae	-386
▁생	-387
▁영	-388
ign	-389
▁거	-390
지만	-391
ound	-392
od	-393
이라	-394
ide	-395
▁강	-396
▁ev	-397
▁한국	-398
▁교	-399
ther	-400
▁pre	-401
ational	-402
▁pe	-403
▁실	-404
ood	-405
so	-406
▁201	-407
ations	-408
▁동	-409
▁저	-410
▁work	-411
▁ar	-412
▁진	-413
▁김	-414
▁out	-415
▁we	-416
▁Korean	-417
▁te	-418
▁after	-419
▁바	-420
ake	-421
."	-422
ine	-423
▁현	-424
ople	-425
▁많	-426
ame	-427
▁장	-428
▁Kim	-429
ke	-430
rov	-431
vernment	-432
form	-433
vel	-434
ell	-435
▁Th	-436
ren	-437
▁성	-438
▁his	-439
▁As	-440
▁such	-441
▁6	-442
ities	-443
까지	-444
▁also	-445
ib	-446
▁세	-447
▁무	-448
ding	-449
▁경기	-450
ence	-451
mit	-452
▁people	-453
irst	-454
og	-455
▁when	-456
act	-457
▁10	-458
▁compan	-459
erv	-460
▁받	-461
ause	-462
었다	-463
ru	-464
▁결	-465
air	-466
▁rec	-467
▁Gyeong	-468
▁they	-469
▁att	-470
▁more	-471
▁than	-472
▁en	-473
▁확	-474
▁their	-475
ree	-476
ical	-477
low	-478
▁것으로	-479
▁inv	-480
▁지난	-481
▁불	-482
▁및	-483
lud	-484
▁cl	-485
se	-486
▁do	-487
one	-488
▁추	-489
ace	-490
▁대한	-491
▁pr	-492
▁분	-493
▁head	-494
lo	-495
▁재	-496
▁if	-497
▁us	-498
▁노	-499
면서	-500
부터	-501
적으로	-502
▁first	-503
▁about	-504
▁pol	-505
▁더	-506
▁acc	-507
che	-508
▁am	-509
ict	-510
▁계	-511
duct	-512
적인	-513
▁같	-514
▁7	-515
▁day	-516
▁필	-517
pt	-518
▁특	-519
▁prov	-520
ions	-521
int	-522
ress	-523
▁원	-524
gi	-525
▁감	-526
▁경우	-527
▁설	-528
▁참	-529
ook	-530
ike	-531
ors	-532
▁스	-533
▁cons	-534
ass	-535
ublic	-536
▁reg	-537
▁남	-538
▁위해	-539
▁우리	-540
다는	-541
ile	-542
ade	-543
▁차	-544
ose	-545
하기	-546
ish	-547
ject	-548
ced	-549
erson	-550
▁회	-551
▁its	-552
ual	-553
▁supp	-554
▁includ	-555
▁알	-556
▁act	-557
ious	-558
▁imp	-559
▁건	-560
▁되	-561
ents	-562
mer	-563
▁적	-564
▁under	-565
enter	-566
lect	-567
▁매	-568
어요	-569
able	-570
▁up	-571
ia	-572
ach	-573
▁new	-574
▁gr	-575
▁반	-576
ning	-577
rough	-578
하게	-579
▁my	-580
▁because	-581
▁Gyeonggi	-582
▁운	-583
▁학	-584
▁행	-585
▁government	-586
된다	-587
▁8	-588
oul	-589
red	-590
▁fin	-591
▁입	-592
ool	-593
inist	-594
▁배	-595
ative	-596
▁필요	-597
▁올	-598
▁후	-599
▁ro	-600
▁one	-601
▁offic	-602
▁sub	-603
▁직	-604
▁invest	-605
▁열	-606
▁Prov	-607
▁할	-608
▁bus	-609
oon	-610
000	-611
very	-612
▁Seoul	-613
▁출	-614
ased	-615
▁sec	-616
▁all	-617
▁other	-618
mitt	-619
▁may	-620
▁과	-621
▁St	-622
장은	-623
▁mem	-624
ack	-625
ok	-626
▁단	-627
들의	-628
▁사람	-629
▁Com	-630
ating	-631
▁좋	-632
anc	-633
old	-634
iff	-635
oint	-636
uc	-637
gu	-638
illion	-639
▁like	-640
▁through	-641
▁where	-642
다고	-643
▁rel	-644
resident	-645
▁public	-646
▁19	-647
iness	-648
▁요	-649
▁won	-650
▁9	-651
▁loc	-652
▁had	-653
ail	-654
▁partic	-655
▁tw	-656
▁over	-657
ater	-658
▁들	-659
chool	-660
▁밝	-661
ond	-662
▁서울	-663
▁각	-664
▁qu	-665
▁당신	-666
ory	-667
orth	-668
▁평	-669
▁포	-670
▁청	-671
▁dec	-672
도록	-673
ite	-674
장이	-675
row	-676
▁stud	-677
▁작	-678
ink	-679
enc	-680
nt	-681
▁mark	-682
▁mo	-683
▁또	-684
▁sc	-685
▁last	-686
▁person	-687
▁them	-688
▁경기도	-689
rop	-690
tern	-691
▁sy	-692
▁diff	-693
▁활	-694
입니다	-695
▁때문	-696
▁co	-697
do	-698
con	-699
▁em	-700
now	-701
▁including	-702
됐다	-703
hed	-704
▁high	-705
,"	-706
iss	-707
ild	-708
▁함	-709
▁Un	-710
velop	-711
ution	-712
),	-713
▁This	-714
▁지원	-715
▁mon	-716
▁Go	-717
▁Gu	-718
▁따라	-719
▁높	-720
▁금	-721
▁two	-722
들은	-723
ized	-724
▁only	-725
gan	-726
hen	-727
위원	-728
dust	-729
▁점	-730
▁가능	-731
▁bet	-732
man	-733
▁oper	-734
ep	-735
▁fe	-736
▁due	-737
ina	-738
▁support	-739
▁ref	-740
▁incre	-741
▁지역	-742
합니다	-743
ular	-744
▁report	-745
▁ra	-746
get	-747
▁your	-748
▁North	-749
▁두	-750
▁official	-751
▁달	-752
▁집	-753
▁규	-754
ivers	-755
▁물	-756
ected	-757
▁이번	-758
we	-759
▁것이	-760
▁inst	-761
▁북	-762
하지	-763
▁count	-764
▁market	-765
▁business	-766
uring	-767
▁comm	-768
stem	-769
▁la	-770
▁미국	-771
su	-772
▁하는	-773
oup	-774
ph	-775
▁사업	-776
▁통해	-777
,000	-778
▁He	-779
▁sm	-780
▁held	-781
▁외	-782
▁no	-783
ural	-784
ert	-785
av	-786
▁호	-787
▁serv	-788
▁op	-789
▁심	-790
▁Province	-791
ied	-792
▁판	-793
▁피	-794
▁pur	-795
▁rep	-796
elf	-797
ific	-798
▁못	-799
mittee	-800
▁게	-801
und	-802
▁법	-803
▁school	-804
abl	-805
▁tra	-806
▁char	-807
▁should	-808
▁vis	-809
▁est	-810
▁meet	-811
▁bu	-812
▁관련	-813
▁companies	-814
ility	-815
▁Lee	-816
▁pos	-817
▁역	-818
▁V	-819
▁함께	-820
▁product	-821
ks	-822
ecial	-823
▁검	-824
▁col	-825
▁앞	-826
▁med	-827
▁나는	-828
▁증	-829
▁project	-830
ention	-831
ures	-832
▁목	-833
▁대해	-834
▁Ar	-835
되는	-836
▁des	-837
▁show	-838
혔다	-839
ise	-840
▁would	-841
gr	-842
▁명	-843
▁say	-844
conom	-845
▁develop	-846
ll	-847
ven	-848
▁사용	-849
▁ann	-850
xt	-851
▁프	-852
▁know	-853
에서는	-854
▁conf	-855
▁화	-856
▁30	-857
▁처	-858
▁system	-859
▁산	-860
▁11	-861
reat	-862
▁need	-863
▁National	-864
는데	-865
rit	-866
irect	-867
▁years	-868
▁위원	-869
▁투	-870
▁num	-871
▁rece	-872
▁month	-873
▁아니	-874
ered	-875
▁If	-876
▁새	-877
olog	-878
▁파	-879
▁업	-880
icult	-881
▁add	-882
▁12	-883
▁밝혔다	-884
bers	-885
▁made	-886
▁any	-887
▁문제	-888
자가	-889
사를	-890
▁car	-891
ments	-892
이라고	-893
▁get	-894
te	-895
▁local	-896
▁임	-897
▁협	-898
▁want	-899
▁many	-900
here	-901
▁dep	-902
▁plan	-903
▁into	-904
erm	-905
기를	-906
▁play	-907
ract	-908
▁양	-909
ates	-910
ob	-911
ange	-912
통령	-913
▁맞	-914
▁진행	-915
ju	-916
ited	-917
rib	-918
ics	-919
▁민	-920
▁간	-921
사가	-922
ian	-923
▁ins	-924
▁드	-925
▁even	-926
agement	-927
▁again	-928
▁good	-929
ener	-930
ided	-931
▁There	-932
으며	-933
ouse	-934
▁number	-935
▁fac	-936
ween	-937
▁company	-938
sib	-939
▁min	-940
▁대통령	-941
▁취	-942
▁perform	-943
▁between	-944
tic	-945
▁indust	-946
▁conc	-947
ization	-948
▁particip	-949
ety	-950
▁초	-951
▁make	-952
oung	-953
▁박	-954
ording	-955
▁team	-956
▁변	-957
▁fol	-958
ience	-959
▁생각	-960
▁disc	-961
inc	-962
▁정부	-963
장을	-964
resent	-965
▁환	-966
▁dr	-967
▁lead	-968
▁잘	-969
ily	-970
▁child	-971
▁총	-972
▁너	-973
▁있습니다	-974
way	-975
ason	-976
ese	-977
day	-978
▁eff	-979
ize	-980
▁We	-981
▁있어	-982
▁중국	-983
▁since	-984
▁체	-985
ord	-986
▁많은	-987
▁이상	-988
ax	-989
plo	-990
▁var	-991
에도	-992
▁운영	-993
ices	-994
▁some	-995
▁15	-996
▁investig	-997
▁take	-998
▁mat	-999
ble	-1000
ally	-1001
▁했다	-1002
▁종	-1003
▁prom	-1004
▁본	-1005
▁관계	-1006
들을	-1007
▁ed	-1008
▁start	-1009
▁follow	-1010
원이	-1011
▁위한	-1012
▁del	-1013
▁ph	-1014
▁use	-1015
ck	-1016
ency	-1017
▁members	-1018
▁resp	-1019
▁등을	-1020
▁President	-1021
fore	-1022
▁think	-1023
▁대표	-1024
하다	-1025
▁200	-1026
▁기업	-1027
▁econom	-1028
ife	-1029
자는	-1030
▁soc	-1031
▁while	-1032
▁다음	-1033
▁right	-1034
▁fam	-1035
ank	-1036
▁ent	-1037
▁음	-1038
성이	-1039
▁가장	-1040
▁trans	-1041
iew	-1042
aking	-1043
▁well	-1044
outh	-1045
ove	-1046
ital	-1047
▁이어	-1048
았다	-1049
▁cre	-1050
▁Je	-1051
apan	-1052
▁An	-1053
ings	-1054
▁저는	-1055
▁교육	-1056
▁Park	-1057
▁requ	-1058
보다	-1059
▁rele	-1060
urn	-1061
idents	-1062
▁다른	-1063
▁데	-1064
wn	-1065
▁che	-1066
ick	-1067
ock	-1068
own	-1069
▁말했다	-1070
▁her	-1071
▁direct	-1072
세요	-1073
▁시간	-1074
iving	-1075
▁could	-1076
lement	-1077
▁order	-1078
▁each	-1079
ful	-1080
ower	-1081
하여야	-1082
urren	-1083
ron	-1084
▁담	-1085
▁organ	-1086
ared	-1087
chn	-1088
하며	-1089
ward	-1090
les	-1091
▁rev	-1092
▁establ	-1093
▁ass	-1094
▁sur	-1095
▁ear	-1096
▁시작	-1097
▁Part	-1098
▁cult	-1099
▁것이다	-1100
olit	-1101
ilities	-1102
▁들어	-1103
▁lar	-1104
▁Tr	-1105
▁살	-1106
▁구청	-1107
였다	-1108
▁det	-1109
▁educ	-1110
▁같은	-1111
▁Wh	-1112
ute	-1113
ind	-1114
▁fact	-1115
▁main	-1116
▁being	-1117
▁근	-1118
ission	-1119
지는	-1120
inistr	-1121
졌다	-1122
▁뒤	-1123
▁Japan	-1124
ty	-1125
▁광	-1126
amp	-1127
▁On	-1128
▁pay	-1129
리는	-1130
ecess	-1131
won	-1132
ams	-1133
▁special	-1134
▁str	-1135
▁Act	-1136
▁하나	-1137
▁did	-1138
▁것은	-1139
▁next	-1140
▁Ass	-1141
▁expected	-1142
▁찾	-1143
▁don	-1144
▁grow	-1145
▁싶	-1146
cess	-1147
▁손	-1148
▁prev	-1149
▁En	-1150
사는	-1151
▁aut	-1152
▁during	-1153
▁것을	-1154
▁확인	-1155
▁met	-1156
▁three	-1157
▁ind	-1158
▁약	-1159
nam	-1160
▁When	-1161
▁comple	-1162
▁management	-1163
▁our	-1164
회의	-1165
ting	-1166
▁bl	-1167
ticle	-1168
▁dist	-1169
▁end	-1170
inistry	-1171
▁Sh	-1172
▁rem	-1173
ection	-1174
▁크	-1175
ministr	-1176
이나	-1177
▁치	-1178
olitan	-1179
▁result	-1180
▁place	-1181
ropolitan	-1182
▁open	-1183
▁law	-1184
지고	-1185
리를	-1186
ision	-1187
거나	-1188
하면	-1189
해야	-1190
tc	-1191
기업	-1192
▁see	-1193
erest	-1194
▁inter	-1195
▁announ	-1196
▁necess	-1197
▁경찰	-1198
▁long	-1199
▁before	-1200
ases	-1201
▁fore	-1202
▁번	-1203
20	-1204
▁참여	-1205
▁ac	-1206
wang	-1207
기가	-1208
ants	-1209
▁inform	-1210
시간	-1211
▁친	-1212
▁contin	-1213
▁second	-1214
uation	-1215
ister	-1216
▁이용	-1217
▁etc	-1218
▁큰	-1219
▁발생	-1220
▁타	-1221
▁City	-1222
▁various	-1223
▁students	-1224
대로	-1225
▁Party	-1226
▁most	-1227
▁줄	-1228
arm	-1229
rict	-1230
운데	-1231
lease	-1232
▁call	-1233
iversity	-1234
its	-1235
▁point	-1236
라고	-1237
▁meeting	-1238
artment	-1239
ives	-1240
ts	-1241
▁언	-1242
▁Met	-1243
▁상황	-1244
▁준	-1245
▁걸	-1246
hip	-1247
▁interest	-1248
▁group	-1249
▁br	-1250
▁cor	-1251
▁million	-1252
▁polic	-1253
pr	-1254
▁Ministry	-1255
▁design	-1256
ather	-1257
stru	-1258
▁국내	-1259
▁sit	-1260
▁emplo	-1261
리가	-1262
▁necessary	-1263
blem	-1264
▁sal	-1265
명이	-1266
rd	-1267
리고	-1268
▁결과	-1269
▁ca	-1270
지를	-1271
▁또는	-1272
ancial	-1273
▁every	-1274
▁area	-1275
▁gu	-1276
▁가운데	-1277
▁만들	-1278
▁합	-1279
airman	-1280
▁hel	-1281
센터	-1282
▁problem	-1283
▁promot	-1284
▁100	-1285
▁세계	-1286
▁China	-1287
▁real	-1288
▁Con	-1289
▁필요한	-1290
▁아이	-1291
▁네	-1292
ew	-1293
uch	-1294
cheon	-1295
▁police	-1296
▁just	-1297
▁프로	-1298
▁now	-1299
▁18	-1300
▁문화	-1301
사업	-1302
ave	-1303
ries	-1304
▁Do	-1305
▁difficult	-1306
ft	-1307
▁편	-1308
▁그는	-1309
▁same	-1310
riend	-1311
▁ret	-1312
lection	-1313
▁하고	-1314
▁이후	-1315
▁what	-1316
라는	-1317
▁Article	-1318
▁카	-1319
ved	-1320
med	-1321
▁자신	-1322
▁창	-1323
duc	-1324
▁world	-1325
▁채	-1326
por	-1327
▁look	-1328
▁표	-1329
lear	-1330
▁set	-1331
▁case	-1332
되고	-1333
▁office	-1334
▁돌	-1335
▁속	-1336
▁다양	-1337
▁help	-1338
▁You	-1339
▁adv	-1340
▁지금	-1341
▁경제	-1342
▁충	-1343
▁lot	-1344
▁날	-1345
ret	-1346
▁how	-1347
▁최근	-1348
▁넘	-1349
▁트	-1350
alth	-1351
▁사회	-1352
▁농	-1353
▁visit	-1354
▁residents	-1355
▁gener	-1356
이라는	-1357
▁해당	-1358
▁올해	-1359
▁복	-1360
▁때문에	-1361
▁found	-1362
▁aff	-1363
비스	-1364
▁days	-1365
▁논	-1366
▁process	-1367
▁used	-1368
▁Min	-1369
성을	-1370
chnolog	-1371
▁따른	-1372
▁prof	-1373
▁곳	-1374
▁13	-1375
par	-1376
▁Acc	-1377
▁예정	-1378
▁Committee	-1379
raph	-1380
▁전문	-1381
▁될	-1382
▁without	-1383
uss	-1384
▁event	-1385
▁보고	-1386
oy	-1387
▁했	-1388
▁opp	-1389
▁현재	-1390
▁education	-1391
▁독	-1392
▁rest	-1393
위원회	-1394
▁own	-1395
▁알려	-1396
ived	-1397
▁possib	-1398
▁sign	-1399
▁완	-1400
▁South	-1401
▁buil	-1402
ient	-1403
read	-1404
▁제품	-1405
▁추진	-1406
시아	-1407
lain	-1408
vernor	-1409
▁등이	-1410
▁메	-1411
eration	-1412
▁products	-1413
▁pass	-1414
▁small	-1415
나요	-1416
earch	-1417
▁differe	-1418
서는	-1419
▁term	-1420
ering	-1421
▁지난해	-1422
기관	-1423
▁일본	-1424
urrent	-1425
▁있도록	-1426
▁사실	-1427
▁삼	-1428
▁있을	-1429
▁service	-1430
정을	-1431
▁식	-1432
▁around	-1433
ourt	-1434
▁former	-1435
▁대상	-1436
▁모두	-1437
▁tax	-1438
기에	-1439
The	-1440
▁'	-1441
ished	-1442
▁16	-1443
▁Metropolitan	-1444
ef	-1445
▁job	-1446
▁house	-1447
ium	-1448
▁compet	-1449
▁Cho	-1450
iron	-1451
▁way	-1452
▁industry	-1453
▁설명	-1454
▁14	-1455
▁information	-1456
▁많이	-1457
▁승	-1458
▁Al	-1459
▁exper	-1460
iber	-1461
▁back	-1462
▁food	-1463
▁pop	-1464
화를	-1465
▁dem	-1466
▁related	-1467
ense	-1468
▁특히	-1469
ism	-1470
▁Government	-1471
▁meas	-1472
▁cr	-1473
alk	-1474
gy	-1475
ecut	-1476
▁life	-1477
▁city	-1478
▁him	-1479
▁북한	-1480
▁According	-1481
ten	-1482
▁bro	-1483
▁activ	-1484
력을	-1485
▁학생	-1486
하면서	-1487
▁온	-1488
yung	-1489
▁늘	-1490
cil	-1491
als	-1492
iod	-1493
▁import	-1494
iation	-1495
▁conduct	-1496
▁wee	-1497
들에게	-1498
inance	-1499
▁접	-1500
▁기대	-1501
aj	-1502
▁이날	-1503
ork	-1504
▁commun	-1505
▁How	-1506
▁토	-1507
▁Pro	-1508
▁development	-1509
▁Center	-1510
▁폭	-1511
으면	-1512
▁Dae	-1513
imes	-1514
other	-1515
▁25	-1516
▁facilities	-1517
omen	-1518
ale	-1519
▁saying	-1520
ters	-1521
▁Bus	-1522
osp	-1523
▁fi	-1524
abor	-1525
▁먹	-1526
viron	-1527
led	-1528
▁At	-1529
▁다양한	-1530
struction	-1531
airs	-1532
▁children	-1533
uk	-1534
▁May	-1535
원을	-1536
▁다시	-1537
▁있다는	-1538
▁축	-1539
▁국가	-1540
ving	-1541
▁정도	-1542
학교	-1543
▁investigation	-1544
lected	-1545
▁계획	-1546
▁country	-1547
▁consid	-1548
erred	-1549
▁large	-1550
▁없는	-1551
oth	-1552
ended	-1553
▁much	-1554
▁addition	-1555
▁리	-1556
▁following	-1557
▁reason	-1558
▁50	-1559
▁within	-1560
ouncil	-1561
vironment	-1562
▁enter	-1563
스트	-1564
▁increase	-1565
ually	-1566
▁누	-1567
▁효	-1568
▁이유	-1569
▁Re	-1570
▁par	-1571
leg	-1572
▁향	-1573
▁제가	-1574
duction	-1575
cept	-1576
▁커	-1577
osed	-1578
▁관심	-1579
▁Gang	-1580
ems	-1581
▁hand	-1582
▁시장	-1583
에요	-1584
ump	-1585
▁책	-1586
▁Moon	-1587
▁center	-1588
ised	-1589
▁별	-1590
tain	-1591
▁오늘	-1592
ope	-1593
dong	-1594
▁care	-1595
▁period	-1596
▁billion	-1597
▁fil	-1598
인이	-1599
ional	-1600
ently	-1601
▁17	-1602
▁ob	-1603
▁태	-1604
▁항	-1605
▁직접	-1606
▁내가	-1607
상을	-1608
ively	-1609
▁saf	-1610
▁administr	-1611
ior	-1612
▁bel	-1613
▁pros	-1614
▁눈	-1615
▁home	-1616
▁절	-1617
▁내용	-1618
▁announced	-1619
▁설치	-1620
ances	-1621
▁inf	-1622
ath	-1623
로운	-1624
▁she	-1625
chnology	-1626
▁performance	-1627
▁against	-1628
tal	-1629
▁among	-1630
▁포함	-1631
▁social	-1632
▁def	-1633
▁instit	-1634
▁(1	-1635
▁에	-1636
usp	-1637
▁홍	-1638
▁national	-1639
emb	-1640
▁형	-1641
▁University	-1642
▁four	-1643
stit	-1644
이고	-1645
▁president	-1646
▁party	-1647
ival	-1648
▁Off	-1649
자의	-1650
▁very	-1651
▁rate	-1652
▁reported	-1653
▁순	-1654
incial	-1655
▁제공	-1656
she	-1657
원은	-1658
ternational	-1659
▁bo	-1660
ted	-1661
▁조사	-1662
니까	-1663
▁ask	-1664
ried	-1665
▁관리	-1666
▁sum	-1667
▁price	-1668
▁평가	-1669
used	-1670
atic	-1671
르면	-1672
▁코	-1673
▁힘	-1674
해서	-1675
▁Ye	-1676
▁fl	-1677
▁Hy	-1678
gest	-1679
▁주민	-1680
▁fire	-1681
▁연구	-1682
rove	-1683
▁win	-1684
▁사항	-1685
▁Jung	-1686
▁establish	-1687
▁stand	-1688
되어	-1689
▁art	-1690
uture	-1691
▁구청장은	-1692
cent	-1693
ched	-1694
▁활동	-1695
▁current	-1696
ajor	-1697
▁모든	-1698
시설	-1699
▁susp	-1700
ined	-1701
ining	-1702
ner	-1703
duced	-1704
▁권	-1705
▁공개	-1706
▁respon	-1707
▁범	-1708
▁pres	-1709
원의	-1710
▁week	-1711
▁total	-1712
▁Che	-1713
aly	-1714
▁request	-1715
ug	-1716
▁난	-1717
▁등의	-1718
ai	-1719
hing	-1720
▁come	-1721
▁intro	-1722
▁갖	-1723
▁Dong	-1724
들과	-1725
orts	-1726
udget	-1727
▁whether	-1728
▁financial	-1729
▁모습	-1730
▁check	-1731
ilit	-1732
교육	-1733
▁있었	-1734
▁chang	-1735
▁feel	-1736
▁economic	-1737
▁기술	-1738
기도	-1739
▁cost	-1740
ached	-1741
▁방문	-1742
ivate	-1743
▁down	-1744
▁피해	-1745
ustom	-1746
▁power	-1747
ever	-1748
ness	-1749
▁어려	-1750
▁air	-1751
▁effect	-1752
▁끝	-1753
ruct	-1754
eep	-1755
자를	-1756
ists	-1757
▁24	-1758
▁operation	-1759
▁위하여	-1760
▁class	-1761
레이	-1762
▁Jae	-1763
ages	-1764
ds	-1765
▁국민	-1766
▁water	-1767
▁갈	-1768
ov	-1769
▁얼	-1770
▁going	-1771
▁become	-1772
▁개발	-1773
▁progr	-1774
그램	-1775
▁마련	-1776
▁영화	-1777
▁버	-1778
▁attention	-1779
▁디	-1780
▁room	-1781
▁referred	-1782
).	-1783
▁이를	-1784
▁군	-1785
pl	-1786
▁좋은	-1787
mission	-1788
▁though	-1789
겠습니다	-1790
▁family	-1791
ination	-1792
의를	-1793
▁coop	-1794
entr	-1795
▁안전	-1796
▁참석	-1797
▁war	-1798
▁cases	-1799
▁eas	-1800
▁mus	-1801
▁foreign	-1802
력이	-1803
▁벌	-1804
▁building	-1805
▁정보	-1806
▁does	-1807
▁사이	-1808
▁없다	-1809
▁나타	-1810
▁different	-1811
▁policy	-1812
ged	-1813
▁ve	-1814
agraph	-1815
▁prot	-1816
▁low	-1817
▁sol	-1818
▁particular	-1819
▁major	-1820
pe	-1821
line	-1822
▁cap	-1823
▁budget	-1824
▁처음	-1825
▁future	-1826
▁Han	-1827
▁질	-1828
▁officials	-1829
ality	-1830
▁state	-1831
식을	-1832
도가	-1833
▁않는	-1834
▁those	-1835
▁학교	-1836
▁book	-1837
▁working	-1838
▁첫	-1839
▁따르면	-1840
▁된다	-1841
처럼	-1842
에서도	-1843
▁ext	-1844
▁정책	-1845
iety	-1846
▁Man	-1847
▁베	-1848
▁occ	-1849
▁글	-1850
장의	-1851
▁Governor	-1852
▁ful	-1853
embly	-1854
▁sent	-1855
▁De	-1856
▁중요	-1857
uty	-1858
▁change	-1859
▁발표	-1860
기는	-1861
▁friend	-1862
ctions	-1863
▁construction	-1864
▁applic	-1865
alf	-1866
▁implement	-1867
▁account	-1868
▁US	-1869
itiz	-1870
▁Is	-1871
though	-1872
ief	-1873
▁느	-1874
왔다	-1875
io	-1876
▁form	-1877
▁New	-1878
부가	-1879
▁브	-1880
▁amount	-1881
▁big	-1882
▁서비스	-1883
▁조례	-1884
ending	-1885
▁아니라	-1886
▁허	-1887
▁custom	-1888
▁concer	-1889
ix	-1890
▁past	-1891
▁오후	-1892
▁percent	-1893
▁Ex	-1894
iven	-1895
ising	-1896
▁represent	-1897
▁means	-1898
vers	-1899
com	-1900
관리	-1901
gether	-1902
▁together	-1903
oney	-1904
▁improve	-1905
▁사건	-1906
▁health	-1907
▁용	-1908
ature	-1909
▁빠	-1910
지가	-1911
▁21	-1912
hor	-1913
▁situation	-1914
mon	-1915
이하	-1916
bal	-1917
사의	-1918
reen	-1919
▁post	-1920
▁measures	-1921
ex	-1922
▁continu	-1923
▁40	-1924
▁너무	-1925
▁좋아	-1926
akes	-1927
land	-1928
ified	-1929
▁증가	-1930
▁우리는	-1931
ately	-1932
▁environment	-1933
▁전망	-1934
tle	-1935
수가	-1936
▁hard	-1937
▁사진	-1938
▁mid	-1939
ification	-1940
ired	-1941
▁strong	-1942
▁great	-1943
▁Gwang	-1944
▁allow	-1945
▁Minister	-1946
해요	-1947
▁결정	-1948
▁happ	-1949
▁hour	-1950
▁charge	-1951
▁sk	-1952
▁당시	-1953
▁Mar	-1954
▁여러	-1955
ces	-1956
▁ser	-1957
▁분석	-1958
▁투자	-1959
▁aud	-1960
▁측	-1961
▁23	-1962
▁run	-1963
▁fund	-1964
▁activities	-1965
▁급	-1966
oh	-1967
▁기록	-1968
▁level	-1969
me	-1970
gency	-1971
▁볼	-1972
▁금융	-1973
▁explain	-1974
▁member	-1975
stand	-1976
▁tour	-1977
▁있다고	-1978
.5	-1979
▁best	-1980
ata	-1981
▁countries	-1982
문화	-1983
이는	-1984
▁pat	-1985
은행	-1986
▁provide	-1987
▁possible	-1988
▁received	-1989
▁Busan	-1990
▁규정	-1991
▁jud	-1992
▁neg	-1993
▁sales	-1994
회를	-1995
▁issu	-1996
▁시행	-1997
지역	-1998
▁dom	-1999
단체	-2000
ins	-2001
ned	-2002
▁27	-2003
▁병	-2004
▁prep	-2005
duce	-2006
▁판매	-2007
nce	-2008
▁산업	-2009
▁면	-2010
rdinance	-2011
▁준비	-2012
ugh	-2013
▁committee	-2014
.”	-2015
urity	-2016
▁동안	-2017
▁있었다	-2018
했다고	-2019
▁다만	-2020
▁Office	-2021
ines	-2022
▁부산	-2023
▁여성	-2024
▁예산	-2025
amsung	-2026
▁Please	-2027
san	-2028
했던	-2029
▁dam	-2030
▁보내	-2031
the	-2032
▁로	-2033
▁추가	-2034
▁Assembly	-2035
▁때문이다	-2036
인다	-2037
▁「	-2038
▁test	-2039
▁신청	-2040
▁일부	-2041
▁정상	-2042
▁For	-2043
▁경우에는	-2044
▁pursu	-2045
▁private	-2046
▁areas	-2047
▁fun	-2048
ric	-2049
atch	-2050
▁22	-2051
ier	-2052
ulation	-2053
▁업무	-2054
▁agree	-2055
▁confir	-2056
금을	-2057
▁열린	-2058
회가	-2059
▁unt	-2060
▁lo	-2061
hy	-2062
▁employ	-2063
sid	-2064
▁개최	-2065
▁cond	-2066
itions	-2067
▁That	-2068
ody	-2069
▁어떤	-2070
▁실시	-2071
utes	-2072
▁Ordinance	-2073
▁matters	-2074
▁친구	-2075
▁young	-2076
주시	-2077
ilitary	-2078
▁val	-2079
▁culture	-2080
▁Sec	-2081
▁women	-2082
▁관한	-2083
씨가	-2084
▁않은	-2085
겠다	-2086
elfare	-2087
▁구성	-2088
iol	-2089
▁높은	-2090
ressed	-2091
▁만큼	-2092
uman	-2093
ey	-2094
▁새로운	-2095
▁Samsung	-2096
▁기준	-2097
▁today	-2098
▁fall	-2099
▁here	-2100
▁sim	-2101
ho	-2102
▁된	-2103
▁using	-2104
▁give	-2105
inese	-2106
je	-2107
▁요구	-2108
omet	-2109
▁bas	-2110
▁until	-2111
▁특별	-2112
ront	-2113
▁dra	-2114
▁demand	-2115
▁important	-2116
▁based	-2117
▁popular	-2118
▁crit	-2119
ger	-2120
▁환경	-2121
vant	-2122
▁확대	-2123
▁money	-2124
▁too	-2125
▁experience	-2126
▁지적	-2127
▁move	-2128
▁list	-2129
▁cert	-2130
lobal	-2131
▁등에	-2132
가는	-2133
ospital	-2134
▁these	-2135
▁game	-2136
▁store	-2137
인을	-2138
We	-2139
▁영향	-2140
inafter	-2141
▁equ	-2142
▁able	-2143
▁expand	-2144
▁insp	-2145
▁공연	-2146
▁growth	-2147
▁받아	-2148
▁technology	-2149
ecution	-2150
▁Chinese	-2151
났다	-2152
▁increased	-2153
▁profess	-2154
▁이런	-2155
estival	-2156
▁이미	-2157
▁합니다	-2158
▁길	-2159
페이	-2160
▁sing	-2161
▁put	-2162
▁공동	-2163
▁쓰	-2164
▁잡	-2165
▁old	-2166
▁28	-2167
▁전국	-2168
▁why	-2169
▁26	-2170
itizens	-2171
치를	-2172
hereinafter	-2173
hib	-2174
ars	-2175
▁top	-2176
▁let	-2177
서를	-2178
▁five	-2179
▁still	-2180
▁가격	-2181
▁workers	-2182
▁Japanese	-2183
ceed	-2184
▁half	-2185
▁라	-2186
▁Gr	-2187
▁left	-2188
estic	-2189
▁decided	-2190
uclear	-2191
▁2018	-2192
▁당신은	-2193
▁프로그램	-2194
▁data	-2195
▁중심	-2196
▁막	-2197
arent	-2198
도를	-2199
sue	-2200
▁Su	-2201
yeon	-2202
rial	-2203
▁과정	-2204
▁leg	-2205
▁가족	-2206
▁검찰	-2207
▁예상	-2208
▁times	-2209
▁expens	-2210
▁writ	-2211
▁present	-2212
▁near	-2213
관이	-2214
▁애	-2215
▁came	-2216
▁국제	-2217
▁viol	-2218
▁safety	-2219
▁record	-2220
럼프	-2221
▁hope	-2222
▁Educ	-2223
제로	-2224
app	-2225
▁최대	-2226
▁lit	-2227
으나	-2228
기로	-2229
▁making	-2230
료를	-2231
▁author	-2232
▁철	-2233
▁opin	-2234
▁projects	-2235
wan	-2236
▁discuss	-2237
▁then	-2238
yang	-2239
▁general	-2240
oll	-2241
▁대학	-2242
▁Res	-2243
▁시민	-2244
▁analy	-2245
▁ord	-2246
▁삼성	-2247
▁도시	-2248
▁province	-2249
aster	-2250
▁사고	-2251
▁지급	-2252
▁free	-2253
▁낮	-2254
▁fiel	-2255
▁어떻	-2256
▁Eng	-2257
▁Chung	-2258
▁지방	-2259
▁After	-2260
특별	-2261
ple	-2262
▁early	-2263
▁당신이	-2264
▁Trump	-2265
▁land	-2266
RW	-2267
▁department	-2268
▁행사	-2269
자들이	-2270
▁took	-2271
항에	-2272
▁hous	-2273
aid	-2274
▁백	-2275
▁emer	-2276
어나	-2277
▁보여	-2278
▁lear	-2279
▁Serv	-2280
▁hig	-2281
hic	-2282
inal	-2283
▁exc	-2284
▁director	-2285
hes	-2286
▁consum	-2287
▁Ad	-2288
▁배우	-2289
▁My	-2290
▁results	-2291
▁hol	-2292
asing	-2293
산업	-2294
den	-2295
▁Council	-2296
▁기존	-2297
▁개선	-2298
▁press	-2299
▁Education	-2300
▁apply	-2301
▁rul	-2302
▁활용	-2303
했습니다	-2304
▁야	-2305
▁행정	-2306
▁않았	-2307
▁trad	-2308
▁어떻게	-2309
sc	-2310
▁않고	-2311
▁골	-2312
▁hist	-2313
▁월	-2314
▁released	-2315
가요	-2316
▁관계자는	-2317
ify	-2318
▁mov	-2319
장에서	-2320
▁media	-2321
▁패	-2322
▁election	-2323
ociation	-2324
▁stat	-2325
▁military	-2326
▁1,	-2327
▁Pol	-2328
▁Jong	-2329
▁트럼프	-2330
▁return	-2331
▁감사	-2332
▁송	-2333
▁proper	-2334
▁폐	-2335
▁Te	-2336
상이	-2337
▁감독	-2338
▁contract	-2339
▁선수	-2340
ocr	-2341
ocu	-2342
▁마음	-2343
omm	-2344
jin	-2345
▁있어요	-2346
대표	-2347
▁lim	-2348
안을	-2349
▁혐	-2350
▁선정	-2351
pos	-2352
위를	-2353
▁charact	-2354
▁시설	-2355
▁polit	-2356
▁manag	-2357
랜드	-2358
ructure	-2359
▁ap	-2360
▁What	-2361
▁expect	-2362
▁Sp	-2363
▁오전	-2364
▁ur	-2365
pose	-2366
▁고객	-2367
▁2016	-2368
person	-2369
▁인정	-2370
▁organiz	-2371
▁Dem	-2372
▁pursuant	-2373
▁계속	-2374
ieve	-2375
▁find	-2376
▁short	-2377
",	-2378
▁exch	-2379
▁의견	-2380
ges	-2381
▁응	-2382
▁KRW	-2383
▁ty	-2384
nd	-2385
▁즐	-2386
장에	-2387
▁labor	-2388
제를	-2389
▁최고	-2390
▁오는	-2391
▁수도	-2392
▁않아	-2393
▁휴	-2394
▁vehic	-2395
▁그러	-2396
▁생산	-2397
▁read	-2398
▁quest	-2399
▁site	-2400
지원	-2401
▁극	-2402
▁제출	-2403
hold	-2404
▁domestic	-2405
▁지속	-2406
▁찾아	-2407
▁issue	-2408
▁소비	-2409
▁elect	-2410
▁규모	-2411
었습니다	-2412
▁paragraph	-2413
▁However	-2414
명의	-2415
201	-2416
▁entr	-2417
cast	-2418
aterial	-2419
ames	-2420
▁자유	-2421
ivil	-2422
▁phot	-2423
reng	-2424
▁economy	-2425
▁docu	-2426
▁tem	-2427
▁기간	-2428
▁name	-2429
▁vol	-2430
▁이야	-2431
▁Sup	-2432
▁Incheon	-2433
▁prevent	-2434
not	-2435
▁music	-2436
▁있으며	-2437
▁인터	-2438
▁같아	-2439
▁주요	-2440
▁plans	-2441
인의	-2442
▁relevant	-2443
lish	-2444
▁div	-2445
ash	-2446
▁만들어	-2447
▁Shin	-2448
▁cultural	-2449
계획	-2450
mber	-2451
▁investment	-2452
▁try	-2453
▁install	-2454
▁요청	-2455
ik	-2456
▁분야	-2457
▁잠	-2458
▁있고	-2459
.1	-2460
▁좀	-2461
▁called	-2462
aring	-2463
▁global	-2464
▁이뤄	-2465
▁citizens	-2466
▁research	-2467
▁expert	-2468
▁보인다	-2469
▁부분	-2470
▁streng	-2471
▁적용	-2472
▁29	-2473
명을	-2474
▁buy	-2475
ird	-2476
부는	-2477
▁우려	-2478
▁나온	-2479
▁must	-2480
되지	-2481
joy	-2482
기술	-2483
▁몰	-2484
▁Although	-2485
▁flo	-2486
▁테	-2487
▁foc	-2488
렇게	-2489
30	-2490
▁Co	-2491
▁팀	-2492
▁후보	-2493
▁대통령이	-2494
▁front	-2495
▁news	-2496
▁사랑	-2497
▁발전	-2498
▁relations	-2499
ets	-2500
▁나오	-2501
▁생활	-2502
▁그것	-2503
nel	-2504
동안	-2505
▁Chairman	-2506
▁떨	-2507
utions	-2508
까요	-2509
▁Pr	-2510
ards	-2511
▁31	-2512
▁경쟁	-2513
▁material	-2514
▁건강	-2515
▁film	-2516
어서	-2517
ccess	-2518
▁Hong	-2519
▁전체	-2520
▁agreement	-2521
stitute	-2522
▁없이	-2523
ones	-2524
ready	-2525
▁vide	-2526
ling	-2527
dict	-2528
렸다	-2529
vey	-2530
▁Choi	-2531
▁그녀	-2532
소년	-2533
▁enjoy	-2534
▁판단	-2535
장과	-2536
▁노동	-2537
▁eval	-2538
▁받은	-2539
work	-2540
▁Court	-2541
▁affairs	-2542
▁corpor	-2543
crib	-2544
ible	-2545
부를	-2546
▁외국	-2547
▁exam	-2548
▁Am	-2549
▁mor	-2550
▁상태	-2551
▁live	-2552
▁view	-2553
▁공공	-2554
dle	-2555
이에요	-2556
▁아직	-2557
▁비롯	-2558
▁less	-2559
▁참가	-2560
▁treat	-2561
▁어느	-2562
▁full	-2563
▁hold	-2564
iet	-2565
▁적극	-2566
ension	-2567
ros	-2568
▁의미	-2569
▁went	-2570
도로	-2571
▁already	-2572
▁강조	-2573
EO	-2574
rol	-2575
▁services	-2576
▁prosecution	-2577
andid	-2578
▁해외	-2579
▁medical	-2580
yees	-2581
▁once	-2582
▁body	-2583
▁study	-2584
▁방송	-2585
▁success	-2586
▁콘	-2587
▁hours	-2588
회담	-2589
eremon	-2590
▁hot	-2591
less	-2592
스템	-2593
▁sl	-2594
▁attached	-2595
▁노력	-2596
▁provincial	-2597
ides	-2598
▁관광	-2599
ocratic	-2600
▁super	-2601
마트	-2602
▁chairman	-2603
▁60	-2604
▁예정이다	-2605
▁수사	-2606
▁Jun	-2607
▁park	-2608
▁mod	-2609
▁귀	-2610
▁떠	-2611
대가	-2612
▁side	-2613
▁vict	-2614
▁고려	-2615
▁설명했다	-2616
▁Can	-2617
하거나	-2618
▁주장	-2619
▁바로	-2620
▁spec	-2621
▁방법	-2622
▁이해	-2623
ically	-2624
정이	-2625
했고	-2626
▁purch	-2627
연구	-2628
.2	-2629
▁regard	-2630
▁according	-2631
▁months	-2632
▁road	-2633
ember	-2634
한국	-2635
▁season	-2636
▁팬	-2637
▁appoint	-2638
urance	-2639
oot	-2640
▁천	-2641
스를	-2642
주의	-2643
하다고	-2644
mun	-2645
▁Dist	-2646
▁receive	-2647
aim	-2648
▁Ind	-2649
ons	-2650
▁인천	-2651
▁개인	-2652
하려	-2653
ffic	-2654
▁They	-2655
▁2017	-2656
▁Dep	-2657
▁established	-2658
reme	-2659
원에	-2660
▁공무	-2661
▁효과	-2662
▁사람이	-2663
▁paid	-2664
▁같이	-2665
부분	-2666
▁먼	-2667
.,	-2668
entral	-2669
▁mar	-2670
▁human	-2671
▁appl	-2672
▁beg	-2673
ortun	-2674
▁purpose	-2675
▁employees	-2676
▁pain	-2677
retary	-2678
▁그리고	-2679
▁그런	-2680
▁review	-2681
▁fail	-2682
▁expenses	-2683
▁수준	-2684
▁self	-2685
▁seems	-2686
물을	-2687
▁cooperation	-2688
▁talk	-2689
특별시	-2690
osition	-2691
▁더욱	-2692
밖에	-2693
ator	-2694
시는	-2695
▁av	-2696
eremony	-2697
▁subject	-2698
▁어린	-2699
▁court	-2700
ption	-2701
▁share	-2702
▁Institute	-2703
▁spe	-2704
▁블	-2705
체가	-2706
▁가능성이	-2707
▁일반	-2708
▁hospital	-2709
▁여행	-2710
이터	-2711
ipp	-2712
inary	-2713
▁parent	-2714
mitted	-2715
▁explained	-2716
▁program	-2717
ocal	-2718
동차	-2719
for	-2720
▁bre	-2721
주는	-2722
ead	-2723
aek	-2724
▁send	-2725
erence	-2726
▁please	-2727
▁성공	-2728
▁집중	-2729
▁farm	-2730
▁떨어	-2731
cement	-2732
▁cannot	-2733
리에	-2734
▁create	-2735
aken	-2736
▁reve	-2737
▁participate	-2738
▁living	-2739
▁conducted	-2740
▁정말	-2741
라도	-2742
▁joint	-2743
▁consult	-2744
▁exist	-2745
시에	-2746
▁아닌	-2747
환경	-2748
▁Indust	-2749
▁Ju	-2750
min	-2751
▁플	-2752
▁sex	-2753
개월	-2754
▁love	-2755
▁recently	-2756
▁돌아	-2757
▁bur	-2758
▁몇	-2759
▁받고	-2760
▁detail	-2761
.3	-2762
▁Jin	-2763
▁Young	-2764
▁남북	-2765
▁led	-2766
됩니다	-2767
▁Yang	-2768
이었다	-2769
eas	-2770
▁laun	-2771
▁determ	-2772
▁production	-2773
▁차량	-2774
▁prices	-2775
▁핵	-2776
iver	-2777
▁Rep	-2778
▁정부가	-2779
▁쉽	-2780
하도록	-2781
▁po	-2782
▁got	-2783
▁sect	-2784
iting	-2785
▁있지만	-2786
▁selected	-2787
▁답	-2788
▁악	-2789
az	-2790
▁상품	-2791
▁subsid	-2792
▁호의	-2793
▁무엇	-2794
▁강화	-2795
▁전문가	-2796
▁training	-2797
▁District	-2798
▁국회	-2799
▁both	-2800
진다	-2801
▁2015	-2802
▁morning	-2803
airperson	-2804
이트	-2805
▁ceremony	-2806
▁grad	-2807
")	-2808
▁소속	-2809
aw	-2810
▁만나	-2811
▁candid	-2812
▁해결	-2813
▁지정	-2814
ration	-2815
▁organizations	-2816
hod	-2817
▁United	-2818
be	-2819
▁신고	-2820
ging	-2821
▁문제가	-2822
▁199	-2823
▁Yong	-2824
▁왜	-2825
▁district	-2826
점을	-2827
▁일자	-2828
▁대상으로	-2829
▁Cult	-2830
제가	-2831
스가	-2832
▁얻	-2833
▁exhib	-2834
일까지	-2835
▁Since	-2836
▁Cheong	-2837
▁존	-2838
▁Association	-2839
irc	-2840
▁broad	-2841
orrow	-2842
▁되는	-2843
ises	-2844
▁것입니다	-2845
▁맡	-2846
▁character	-2847
▁occur	-2848
iqu	-2849
▁정치	-2850
▁previous	-2851
정보	-2852
ream	-2853
avor	-2854
orld	-2855
▁English	-2856
▁away	-2857
▁summit	-2858
▁엄	-2859
sel	-2860
▁얼마	-2861
지에	-2862
▁육	-2863
head	-2864
Kore	-2865
이가	-2866
▁recomm	-2867
▁도지	-2868
▁역할	-2869
수를	-2870
▁조성	-2871
▁started	-2872
동을	-2873
▁along	-2874
▁tal	-2875
▁application	-2876
▁경험	-2877
▁Democratic	-2878
식이	-2879
▁Service	-2880
▁매우	-2881
▁긴	-2882
▁floor	-2883
izing	-2884
대를	-2885
orn	-2886
자인	-2887
▁arr	-2888
▁travel	-2889
움을	-2890
▁dram	-2891
씨는	-2892
일부터	-2893
nov	-2894
▁became	-2895
사와	-2896
화가	-2897
▁remain	-2898
▁reveal	-2899
▁청와	-2900
▁understand	-2901
케이	-2902
▁competition	-2903
▁visited	-2904
주세요	-2905
ured	-2906
업을	-2907
▁line	-2908
ways	-2909
▁mean	-2910
▁스타	-2911
▁continue	-2912
▁el	-2913
aker	-2914
▁taking	-2915
▁펼	-2916
rest	-2917
▁0	-2918
ha	-2919
마다	-2920
ivid	-2921
ene	-2922
▁부담	-2923
oss	-2924
▁trade	-2925
▁agency	-2926
▁better	-2927
▁머	-2928
억원	-2929
▁이에	-2930
자로	-2931
▁likely	-2932
▁community	-2933
▁claim	-2934
▁civil	-2935
▁So	-2936
▁method	-2937
▁cent	-2938
▁keep	-2939
▁distrib	-2940
▁성장	-2941
임을	-2942
cy	-2943
▁No	-2944
▁accident	-2945
▁critic	-2946
self	-2947
▁representative	-2948
▁주문	-2949
▁우리가	-2950
▁late	-2951
aur	-2952
▁tar	-2953
▁field	-2954
▁payment	-2955
적이	-2956
▁맛	-2957
▁turn	-2958
▁의혹	-2959
▁돈	-2960
▁이것	-2961
치는	-2962
sang	-2963
ergy	-2964
▁당신의	-2965
▁작품	-2966
주당	-2967
▁separ	-2968
▁international	-2969
▁구매	-2970
▁night	-2971
▁대부분	-2972
▁cour	-2973
itional	-2974
.4	-2975
50	-2976
▁Sa	-2977
▁앞으로	-2978
▁opening	-2979
▁ben	-2980
▁회의	-2981
▁sold	-2982
▁유지	-2983
opp	-2984
▁때에는	-2985
ication	-2986
icultural	-2987
▁another	-2988
▁asked	-2989
▁administration	-2990
▁net	-2991
▁희	-2992
rug	-2993
▁말한다	-2994
▁soon	-2995
acher	-2996
▁Gwangju	-2997
▁확보	-2998
▁돼	-2999
ored	-3000
네요	-3001
▁Where	-3002
▁놓	-3003
▁date	-3004
의회	-3005
▁song	-3006
▁비용	-3007
▁World	-3008
▁prescrib	-3009
▁드러	-3010
enior	-3011
▁보도	-3012
illage	-3013
조에	-3014
▁pract	-3015
▁Form	-3016
▁rights	-3017
▁tell	-3018
▁그래	-3019
▁sell	-3020
▁풍	-3021
▁overs	-3022
▁men	-3023
.6	-3024
▁Mayor	-3025
ball	-3026
ross	-3027
▁제기	-3028
▁현지	-3029
▁Nam	-3030
▁Kang	-3031
▁income	-3032
▁welfare	-3033
사에	-3034
▁뉴	-3035
▁Air	-3036
▁somet	-3037
▁또한	-3038
▁Commission	-3039
▁leader	-3040
▁등으로	-3041
▁계약	-3042
▁제작	-3043
▁things	-3044
by	-3045
시장	-3046
개발	-3047
▁자신의	-3048
▁video	-3049
ients	-3050
▁appear	-3051
ogn	-3052
시가	-3053
요일	-3054
▁내년	-3055
▁(2	-3056
▁final	-3057
▁이름	-3058
▁시간이	-3059
▁non	-3060
기간	-3061
▁works	-3062
.8	-3063
ran	-3064
▁터	-3065
▁trial	-3066
▁history	-3067
었던	-3068
▁먼저	-3069
▁problems	-3070
리아	-3071
로벌	-3072
▁coun	-3073
▁located	-3074
ves	-3075
선을	-3076
▁크게	-3077
▁third	-3078
▁Cor	-3079
▁현대	-3080
itive	-3081
▁administrative	-3082
사회	-3083
▁known	-3084
side	-3085
▁showed	-3086
▁기관	-3087
비를	-3088
경제	-3089
▁damage	-3090
▁됐다	-3091
▁침	-3092
▁den	-3093
soo	-3094
.7	-3095
▁attract	-3096
▁TV	-3097
▁고용	-3098
▁organization	-3099
▁negot	-3100
▁클	-3101
▁beh	-3102
▁six	-3103
▁confirmed	-3104
▁70	-3105
라인	-3106
▁수출	-3107
▁circ	-3108
▁School	-3109
▁regul	-3110
했지만	-3111
▁stage	-3112
▁March	-3113
▁풀	-3114
전을	-3115
인데	-3116
▁논란	-3117
idence	-3118
rovers	-3119
▁키	-3120
▁저희	-3121
▁security	-3122
atural	-3123
▁Group	-3124
전에	-3125
▁parents	-3126
▁몸	-3127
▁survey	-3128
▁둘	-3129
조제	-3130
10	-3131
▁캐	-3132
▁의원	-3133
▁With	-3134
▁혐의	-3135
aces	-3136
iding	-3137
iday	-3138
▁orig	-3139
혁신	-3140
만원	-3141
▁Song	-3142
감을	-3143
▁caused	-3144
imum	-3145
▁wa	-3146
▁began	-3147
ability	-3148
▁Liber	-3149
되면	-3150
▁탄	-3151
▁eng	-3152
ends	-3153
▁contrib	-3154
▁International	-3155
▁clear	-3156
▁space	-3157
르는	-3158
▁kind	-3159
▁황	-3160
소를	-3161
▁거래	-3162
▁provided	-3163
▁pict	-3164
▁중소	-3165
▁conn	-3166
했어요	-3167
▁징	-3168
▁treatment	-3169
지로	-3170
▁promote	-3171
▁Jeju	-3172
ecutive	-3173
▁spread	-3174
▁added	-3175
▁didn	-3176
▁선택	-3177
young	-3178
▁우선	-3179
▁household	-3180
▁Eu	-3181
▁있나요	-3182
▁suff	-3183
▁보호	-3184
▁사무	-3185
▁fine	-3186
▁음악	-3187
▁혼	-3188
▁담당	-3189
▁교수	-3190
▁처리	-3191
▁deb	-3192
복지	-3193
▁card	-3194
▁complex	-3195
▁draw	-3196
▁부족	-3197
▁attended	-3198
urch	-3199
verage	-3200
했다는	-3201
▁가능한	-3202
시키	-3203
▁조금	-3204
▁높아	-3205
▁러	-3206
▁전시	-3207
▁Police	-3208
rast	-3209
하다는	-3210
정책	-3211
▁전했다	-3212
계를	-3213
▁&	-3214
구청	-3215
이며	-3216
▁famil	-3217
▁사항을	-3218
▁CEO	-3219
▁far	-3220
▁employment	-3221
▁관심이	-3222
되었다	-3223
▁resol	-3224
▁opportun	-3225
meric	-3226
▁Pl	-3227
ury	-3228
cer	-3229
cher	-3230
illeg	-3231
세를	-3232
▁schools	-3233
▁업체	-3234
▁persons	-3235
▁institutions	-3236
재인	-3237
▁품	-3238
▁않을	-3239
▁contain	-3240
▁여기	-3241
▁players	-3242
▁일이	-3243
▁장애	-3244
▁Be	-3245
▁light	-3246
oice	-3247
업체	-3248
▁와	-3249
관은	-3250
.9	-3251
▁sem	-3252
▁jo	-3253
▁그의	-3254
▁middle	-3255
▁bea	-3256
▁혹	-3257
▁fans	-3258
▁Just	-3259
▁decision	-3260
▁음식	-3261
▁영어	-3262
▁글로벌	-3263
▁압	-3264
▁camp	-3265
▁policies	-3266
▁wr	-3267
els	-3268
▁도입	-3269
▁Fin	-3270
year	-3271
▁position	-3272
▁restaur	-3273
▁region	-3274
▁recogn	-3275
▁society	-3276
time	-3277
yong	-3278
ories	-3279
▁illeg	-3280
▁Even	-3281
epend	-3282
▁quality	-3283
atory	-3284
▁스마트	-3285
%)	-3286
It	-3287
▁appe	-3288
▁재판	-3289
▁발견	-3290
hern	-3291
함을	-3292
▁close	-3293
▁활성	-3294
▁윤	-3295
▁자리	-3296
▁responsib	-3297
▁이루	-3298
다면	-3299
치가	-3300
▁movie	-3301
▁controvers	-3302
▁보면	-3303
▁deliber	-3304
▁이제	-3305
음을	-3306
▁having	-3307
Ch	-3308
▁밀	-3309
▁상승	-3310
▁watch	-3311
rip	-3312
thing	-3313
▁놀	-3314
▁물론	-3315
▁transf	-3316
▁Pe	-3317
드는	-3318
▁서울특별시	-3319
▁minutes	-3320
▁benef	-3321
▁individ	-3322
▁overseas	-3323
▁participated	-3324
▁공간	-3325
▁broadcast	-3326
▁inspection	-3327
▁teacher	-3328
라마	-3329
▁대비	-3330
view	-3331
▁ach	-3332
▁actively	-3333
▁focus	-3334
pril	-3335
let	-3336
ats	-3337
▁House	-3338
▁있는데	-3339
트를	-3340
▁검토	-3341
▁directly	-3342
buk	-3343
▁우수	-3344
▁pointed	-3345
ills	-3346
▁탈	-3347
▁숨	-3348
▁소개	-3349
▁base	-3350
▁changed	-3351
▁과거	-3352
ys	-3353
▁little	-3354
▁experts	-3355
▁supply	-3356
움이	-3357
정부	-3358
fact	-3359
▁hit	-3360
▁housing	-3361
▁mob	-3362
▁ruling	-3363
▁Reg	-3364
▁그동안	-3365
▁victim	-3366
▁increasing	-3367
▁role	-3368
▁others	-3369
ternal	-3370
▁단체	-3371
▁민간	-3372
▁thought	-3373
▁삶	-3374
▁Ge	-3375
▁political	-3376
한다는	-3377
▁coll	-3378
겠다는	-3379
▁Asian	-3380
▁arrest	-3381
illed	-3382
istics	-3383
▁value	-3384
▁역시	-3385
예요	-3386
▁미래	-3387
▁April	-3388
%,	-3389
▁청와대	-3390
▁States	-3391
▁control	-3392
▁cause	-3393
▁뜻	-3394
구가	-3395
▁하루	-3396
▁중인	-3397
▁key	-3398
▁Sung	-3399
▁opposition	-3400
eng	-3401
▁miss	-3402
▁공급	-3403
▁해요	-3404
인지	-3405
▁주변	-3406
과의	-3407
▁2019	-3408
하기로	-3409
▁cle	-3410
ternet	-3411
회는	-3412
▁tom	-3413
▁교통	-3414
자에게	-3415
▁ris	-3416
▁사람들이	-3417
가가	-3418
▁Chang	-3419
▁transport	-3420
▁레	-3421
▁exchange	-3422
보고	-3423
가를	-3424
▁하지만	-3425
▁friends	-3426
▁dev	-3427
▁regular	-3428
▁각종	-3429
irl	-3430
▁natural	-3431
▁er	-3432
▁구조	-3433
▁직원	-3434
aper	-3435
Korean	-3436
aff	-3437
▁범위	-3438
▁Russ	-3439
▁insurance	-3440
▁concern	-3441
▁conditions	-3442
▁completed	-3443
▁2014	-3444
▁납	-3445
reet	-3446
▁jobs	-3447
angu	-3448
▁경기도가	-3449
▁대하여	-3450
▁nation	-3451
▁approv	-3452
go	-3453
ring	-3454
단이	-3455
▁age	-3456
arters	-3457
스로	-3458
▁individual	-3459
of	-3460
▁additional	-3461
ban	-3462
하지만	-3463
자와	-3464
ison	-3465
▁Sang	-3466
▁invol	-3467
▁really	-3468
▁stock	-3469
▁하며	-3470
▁facility	-3471
▁그가	-3472
하였	-3473
▁existing	-3474
▁주목	-3475
▁제주	-3476
▁아파	-3477
▁funds	-3478
▁customers	-3479
▁Seo	-3480
▁raised	-3481
▁Americ	-3482
ountain	-3483
▁해야	-3484
▁always	-3485
▁conven	-3486
▁applied	-3487
▁논의	-3488
▁Jang	-3489
▁June	-3490
점이	-3491
는지	-3492
▁Administr	-3493
▁match	-3494
▁앞서	-3495
한다고	-3496
▁later	-3497
원에서	-3498
▁작성	-3499
▁Seung	-3500
▁given	-3501
ipment	-3502
▁인사	-3503
▁청년	-3504
▁prepare	-3505
▁Elect	-3506
▁dise	-3507
▁반영	-3508
▁어렵	-3509
▁face	-3510
mp	-3511
▁합의	-3512
▁한다는	-3513
▁수행	-3514
▁revealed	-3515
되면서	-3516
▁leaders	-3517
주택	-3518
▁어린이	-3519
▁audit	-3520
▁express	-3521
▁전통	-3522
하였다	-3523
▁chief	-3524
ession	-3525
▁번째	-3526
▁block	-3527
▁businesses	-3528
▁mom	-3529
atives	-3530
▁events	-3531
▁July	-3532
▁industrial	-3533
▁기본	-3534
medi	-3535
전히	-3536
▁Station	-3537
로부터	-3538
조사	-3539
CT	-3540
▁나라	-3541
▁traditional	-3542
▁언제	-3543
▁often	-3544
▁Bl	-3545
▁Liberty	-3546
▁disp	-3547
▁sw	-3548
▁infl	-3549
▁가지	-3550
정은	-3551
▁가지고	-3552
▁(1)	-3553
▁인도	-3554
는다	-3555
rel	-3556
▁알고	-3557
▁Don	-3558
▁trillion	-3559
▁vot	-3560
▁smart	-3561
▁prepar	-3562
▁materials	-3563
▁But	-3564
▁문재인	-3565
▁regist	-3566
▁pus	-3567
irth	-3568
그룹	-3569
BS	-3570
ufact	-3571
▁predict	-3572
권을	-3573
▁death	-3574
▁제외	-3575
▁전에	-3576
▁Sept	-3577
▁것도	-3578
adem	-3579
▁ban	-3580
▁flow	-3581
▁ide	-3582
▁기능	-3583
대에	-3584
▁끌	-3585
▁ground	-3586
▁실제	-3587
인은	-3588
▁promotion	-3589
▁국무	-3590
▁한국의	-3591
▁Ji	-3592
▁과정에서	-3593
▁Provincial	-3594
▁자연	-3595
ators	-3596
ober	-3597
▁회사	-3598
▁es	-3599
▁taken	-3600
▁seen	-3601
▁300	-3602
▁경찰은	-3603
계가	-3604
▁tre	-3605
▁하지	-3606
ened	-3607
▁지난달	-3608
ault	-3609
▁빨	-3610
▁rather	-3611
▁senior	-3612
▁response	-3613
▁각각	-3614
▁나온다	-3615
woo	-3616
▁screen	-3617
▁mult	-3618
▁Jeong	-3619
co	-3620
년간	-3621
▁500	-3622
▁story	-3623
road	-3624
▁어디	-3625
▁lack	-3626
▁sug	-3627
ources	-3628
▁entrust	-3629
▁착	-3630
▁becom	-3631
▁경영	-3632
▁차지	-3633
▁Tae	-3634
▁연락	-3635
▁commission	-3636
▁Seong	-3637
▁sector	-3638
▁협력	-3639
▁위치	-3640
▁higher	-3641
rastructure	-3642
▁암	-3643
ayed	-3644
▁만에	-3645
▁least	-3646
▁emergency	-3647
나라	-3648
▁방식	-3649
▁이는	-3650
▁signific	-3651
▁accept	-3652
▁largest	-3653
▁울	-3654
▁받을	-3655
▁attend	-3656
▁건설	-3657
▁Supreme	-3658
▁변경	-3659
▁촉	-3660
▁선거	-3661
▁recent	-3662
학생	-3663
aged	-3664
▁volun	-3665
자들의	-3666
▁exhibition	-3667
▁인터넷	-3668
ences	-3669
ploy	-3670
erman	-3671
▁없어	-3672
(1	-3673
▁mess	-3674
▁Fr	-3675
▁겪	-3676
▁자동차	-3677
▁Yoon	-3678
▁홈	-3679
▁전달	-3680
▁compared	-3681
rope	-3682
▁나타났다	-3683
▁advance	-3684
스타	-3685
▁뛰	-3686
▁easy	-3687
▁student	-3688
▁improv	-3689
gress	-3690
▁러시아	-3691
▁올라	-3692
▁언론	-3693
▁medium	-3694
▁이러	-3695
▁영향을	-3696
▁host	-3697
▁possibility	-3698
일을	-3699
▁issues	-3700
ening	-3701
▁eat	-3702
▁Public	-3703
▁위험	-3704
▁비판	-3705
tion	-3706
▁의료	-3707
물이	-3708
ues	-3709
▁이동	-3710
▁award	-3711
▁Oct	-3712
▁도지사는	-3713
▁basic	-3714
▁begin	-3715
▁80	-3716
hyun	-3717
▁z	-3718
▁maintain	-3719
▁manufact	-3720
orry	-3721
▁목표	-3722
▁never	-3723
▁드라마	-3724
▁있게	-3725
term	-3726
redit	-3727
▁않았다	-3728
▁wage	-3729
▁Aff	-3730
게요	-3731
emed	-3732
▁negoti	-3733
yo	-3734
▁Le	-3735
▁Econom	-3736
▁operating	-3737
▁complete	-3738
▁무역	-3739
oring	-3740
▁vac	-3741
▁아무	-3742
aily	-3743
▁게임	-3744
▁Jan	-3745
▁상당	-3746
▁구축	-3747
▁looking	-3748
문을	-3749
▁행복	-3750
▁evaluation	-3751
▁effic	-3752
sw	-3753
▁contact	-3754
▁사례	-3755
▁Financial	-3756
▁시스템	-3757
▁introduced	-3758
▁Europe	-3759
▁홍보	-3760
▁Comp	-3761
들도	-3762
▁근로	-3763
▁fem	-3764
▁Fore	-3765
▁mother	-3766
▁Then	-3767
▁costs	-3768
▁대법	-3769
▁trip	-3770
시면	-3771
립니다	-3772
안전	-3773
▁감소	-3774
friend	-3775
▁planning	-3776
▁서로	-3777
lege	-3778
vest	-3779
▁석	-3780
▁인해	-3781
▁유명	-3782
▁ago	-3783
undai	-3784
도시	-3785
▁Bank	-3786
▁계획이다	-3787
▁September	-3788
bs	-3789
▁tren	-3790
원으로	-3791
▁expl	-3792
▁festival	-3793
cell	-3794
성과	-3795
▁fre	-3796
▁팔	-3797
▁사회적	-3798
▁average	-3799
▁fees	-3800
▁decre	-3801
▁지나	-3802
▁체험	-3803
▁최종	-3804
▁Sun	-3805
▁bank	-3806
▁중심으로	-3807
▁few	-3808
▁정확	-3809
▁Jeon	-3810
urther	-3811
▁energy	-3812
▁청소년	-3813
냈다	-3814
있는	-3815
▁현장	-3816
BC	-3817
▁기다	-3818
운영	-3819
▁phone	-3820
▁Z	-3821
▁groups	-3822
▁brand	-3823
▁Affairs	-3824
▁목적으로	-3825
pect	-3826
-1	-3827
안이	-3828
cial	-3829
▁택	-3830
디어	-3831
▁dust	-3832
sh	-3833
대상	-3834
▁repl	-3835
▁이렇게	-3836
▁정상회담	-3837
)’	-3838
▁성과	-3839
▁밤	-3840
도의	-3841
▁decl	-3842
▁cut	-3843
▁불법	-3844
▁주택	-3845
▁something	-3846
anguage	-3847
▁불가	-3848
▁enough	-3849
▁Hyundai	-3850
po	-3851
▁German	-3852
▁중앙	-3853
km	-3854
텐츠	-3855
▁이내	-3856
▁makes	-3857
▁Some	-3858
▁Hyun	-3859
ronics	-3860
서의	-3861
bo	-3862
너지	-3863
▁기획	-3864
▁Yes	-3865
▁heart	-3866
▁Festival	-3867
quarters	-3868
▁공유	-3869
▁ident	-3870
lementary	-3871
촬영	-3872
ilar	-3873
▁points	-3874
▁families	-3875
▁나서	-3876
.0	-3877
▁숙	-3878
▁2013	-3879
▁respect	-3880
▁wind	-3881
▁opinions	-3882
eb	-3883
▁Or	-3884
▁강조했다	-3885
▁quick	-3886
▁leave	-3887
▁goal	-3888
▁Trans	-3889
▁created	-3890
▁해당하는	-3891
▁봉	-3892
▁Kyung	-3893
▁대응	-3894
▁deal	-3895
▁significant	-3896
▁두고	-3897
▁이러한	-3898
▁lower	-3899
▁Gyeongsang	-3900
량이	-3901
▁뿐	-3902
▁meaning	-3903
▁controversy	-3904
▁cities	-3905
▁course	-3906
▁되어	-3907
▁ce	-3908
oman	-3909
건을	-3910
uge	-3911
▁break	-3912
▁도로	-3913
▁institution	-3914
arter	-3915
▁answ	-3916
▁clean	-3917
▁innov	-3918
하던	-3919
▁council	-3920
▁bat	-3921
지막	-3922
▁active	-3923
▁comb	-3924
▁port	-3925
▁붙	-3926
르게	-3927
▁cur	-3928
▁While	-3929
▁outside	-3930
지도	-3931
▁words	-3932
▁시험	-3933
▁하여	-3934
ague	-3935
".	-3936
▁심의	-3937
▁ste	-3938
▁되고	-3939
augh	-3940
위가	-3941
wa	-3942
pecial	-3943
▁공정	-3944
▁유럽	-3945
어난	-3946
▁strate	-3947
▁illegal	-3948
▁꾸	-3949
▁rent	-3950
▁developed	-3951
생활	-3952
NS	-3953
▁currently	-3954
▁퇴	-3955
▁growing	-3956
이란	-3957
▁근무	-3958
action	-3959
▁보이	-3960
▁상대	-3961
▁위탁	-3962
uary	-3963
▁lawm	-3964
▁complain	-3965
▁수요	-3966
▁전해	-3967
▁immedi	-3968
▁인상	-3969
▁Sc	-3970
▁마을	-3971
icy	-3972
별로	-3973
업이	-3974
▁Aug	-3975
▁yet	-3976
▁중요한	-3977
스는	-3978
lier	-3979
▁heat	-3980
▁interview	-3981
▁기념	-3982
▁도착	-3983
▁SK	-3984
▁분위	-3985
▁자료	-3986
▁prepared	-3987
▁size	-3988
▁것이라는	-3989
vert	-3990
▁부모	-3991
▁역할을	-3992
noon	-3993
인들이	-3994
▁도내	-3995
▁needed	-3996
▁question	-3997
머니	-3998
▁있기	-3999
ians	-4000
▁”	-4001
▁agr	-4002
atis	-4003
▁꿈	-4004
▁Gangwon	-4005
▁afternoon	-4006
▁drink	-4007
▁위촉	-4008
▁이곳	-4009
▁leading	-4010
▁items	-4011
▁효율	-4012
akers	-4013
▁최초	-4014
▁conference	-4015
규모	-4016
▁establishment	-4017
국의	-4018
금이	-4019
▁제시	-4020
▁많아	-4021
▁본격	-4022
▁소방	-4023
구를	-4024
rup	-4025
소가	-4026
avy	-4027
▁opened	-4028
▁documents	-4029
▁Provided	-4030
▁마지막	-4031
훈련	-4032
encies	-4033
회에	-4034
▁강원	-4035
▁받았	-4036
▁san	-4037
▁Q	-4038
▁컨	-4039
▁견	-4040
▁찍	-4041
velopment	-4042
▁관심을	-4043
▁그룹	-4044
▁enterpr	-4045
▁programs	-4046
▁trust	-4047
ester	-4048
ietnam	-4049
▁일자리	-4050
▁accord	-4051
▁October	-4052
▁Department	-4053
▁아파트	-4054
▁round	-4055
ches	-4056
fort	-4057
▁겨	-4058
▁현실	-4059
anced	-4060
▁online	-4061
▁expressed	-4062
just	-4063
▁efforts	-4064
▁analyz	-4065
약을	-4066
트남	-4067
▁중소기업	-4068
ishing	-4069
▁suggest	-4070
▁enc	-4071
▁status	-4072
▁사업을	-4073
▁youth	-4074
▁deg	-4075
었고	-4076
습니까	-4077
▁198	-4078
uted	-4079
▁opinion	-4080
to	-4081
▁광주	-4082
▁능	-4083
▁알려졌다	-4084
▁alleg	-4085
rist	-4086
ware	-4087
▁equipment	-4088
hee	-4089
▁operate	-4090
지방	-4091
부에	-4092
▁reform	-4093
▁target	-4094
장으로	-4095
▁Dec	-4096
▁Agency	-4097
gun	-4098
▁LG	-4099
▁핵심	-4100
▁sports	-4101
sis	-4102
▁rise	-4103
like	-4104
then	-4105
▁거쳐	-4106
지면서	-4107
ays	-4108
▁respond	-4109
▁책임	-4110
ne	-4111
▁브랜드	-4112
▁continued	-4113
▁To	-4114
ah	-4115
▁accordance	-4116
ky	-4117
▁Em	-4118
▁호텔	-4119
▁tomorrow	-4120
▁조선	-4121
동산	-4122
▁예술	-4123
▁content	-4124
▁getting	-4125
통신	-4126
arant	-4127
▁starting	-4128
▁가까	-4129
ners	-4130
▁죽	-4131
▁sever	-4132
▁vehicle	-4133
▁regulations	-4134
▁수립	-4135
▁shows	-4136
▁넘어	-4137
▁설립	-4138
▁cal	-4139
enced	-4140
▁개정	-4141
▁그렇	-4142
forcement	-4143
▁깊	-4144
▁walk	-4145
▁similar	-4146
▁왔	-4147
▁bill	-4148
불어	-4149
▁manager	-4150
de	-4151
▁받는	-4152
▁등록	-4153
▁Vietnam	-4154
▁station	-4155
▁Management	-4156
▁최저	-4157
▁나왔다	-4158
리스	-4159
jong	-4160
▁Internet	-4161
이어	-4162
ground	-4163
▁내려	-4164
▁운동	-4165
▁혁신	-4166
▁Mr	-4167
▁있어서	-4168
sized	-4169
서비스	-4170
▁얘	-4171
ducing	-4172
▁어려운	-4173
▁녹	-4174
ample	-4175
▁needs	-4176
▁점을	-4177
▁pet	-4178
▁lives	-4179
드를	-4180
▁passed	-4181
dule	-4182
▁격	-4183
당이	-4184
▁belie	-4185
▁parties	-4186
▁relationship	-4187
▁Med	-4188
▁capital	-4189
▁tast	-4190
▁ship	-4191
▁2,	-4192
▁holiday	-4193
▁2012	-4194
▁Yeong	-4195
▁연결	-4196
▁lect	-4197
거래	-4198
▁strengthen	-4199
이를	-4200
▁제대로	-4201
▁수입	-4202
▁독일	-4203
▁governments	-4204
▁갑	-4205
▁조직	-4206
등학교	-4207
inder	-4208
osing	-4209
▁happy	-4210
ruit	-4211
감이	-4212
▁모습을	-4213
oura	-4214
섰다	-4215
▁cris	-4216
▁personal	-4217
ological	-4218
incip	-4219
▁Land	-4220
mercial	-4221
▁한류	-4222
opping	-4223
▁추천	-4224
▁conflic	-4225
ude	-4226
▁선보	-4227
▁늦	-4228
▁female	-4229
▁Corpor	-4230
▁cooper	-4231
무를	-4232
▁네가	-4233
▁매년	-4234
교통	-4235
▁보유	-4236
▁지도	-4237
lass	-4238
▁싶은	-4239
려고	-4240
▁contents	-4241
▁Electronics	-4242
없이	-4243
br	-4244
▁personnel	-4245
urs	-4246
▁제한	-4247
▁written	-4248
▁vice	-4249
si	-4250
▁색	-4251
▁워	-4252
icial	-4253
▁club	-4254
▁gain	-4255
▁excell	-4256
▁202	-4257
▁관련해	-4258
(2	-4259
▁considered	-4260
▁temper	-4261
ecause	-4262
▁independ	-4263
▁Gangnam	-4264
▁cance	-4265
onom	-4266
ervation	-4267
▁authorities	-4268
▁sorry	-4269
▁university	-4270
두고	-4271
율이	-4272
▁일을	-4273
▁She	-4274
▁collect	-4275
▁minimum	-4276
▁노래	-4277
▁궁	-4278
▁told	-4279
▁Trade	-4280
▁내일	-4281
otion	-4282
▁photo	-4283
▁denuclear	-4284
▁August	-4285
▁staff	-4286
▁Administration	-4287
▁model	-4288
▁인근	-4289
empt	-4290
ibr	-4291
rior	-4292
▁sche	-4293
국이	-4294
▁강남	-4295
▁nuclear	-4296
ape	-4297
▁비핵	-4298
▁designated	-4299
▁submit	-4300
▁ahead	-4301
▁legal	-4302
▁electric	-4303
▁acqu	-4304
▁만든	-4305
▁베트남	-4306
▁정도로	-4307
▁purchase	-4308
하자	-4309
▁lost	-4310
▁아래	-4311
▁gave	-4312
elt	-4313
▁진출	-4314
▁eld	-4315
▁further	-4316
ipl	-4317
ops	-4318
증을	-4319
▁changes	-4320
▁charges	-4321
ula	-4322
▁첨	-4323
lim	-4324
▁believe	-4325
▁대형	-4326
▁January	-4327
▁reduce	-4328
▁제안	-4329
부의	-4330
▁single	-4331
관을	-4332
▁improvement	-4333
지지	-4334
▁같다	-4335
▁평균	-4336
▁대신	-4337
bu	-4338
▁rain	-4339
자치	-4340
▁included	-4341
▁mobile	-4342
ential	-4343
▁sexual	-4344
▁transportation	-4345
분이	-4346
세먼	-4347
ift	-4348
▁Yoo	-4349
▁더불어	-4350
▁Daegu	-4351
행을	-4352
▁bad	-4353
다가	-4354
겠다고	-4355
▁several	-4356
랍니다	-4357
▁crisis	-4358
pport	-4359
▁Prime	-4360
▁ut	-4361
▁부탁	-4362
▁concert	-4363
활동	-4364
▁기반	-4365
▁First	-4366
▁별지	-4367
▁믿	-4368
▁종합	-4369
▁birth	-4370
▁influ	-4371
▁estate	-4372
ili	-4373
▁Hwang	-4374
▁Justice	-4375
품을	-4376
▁매출	-4377
cember	-4378
▁됩니다	-4379
▁heard	-4380
▁말씀	-4381
▁얼마나	-4382
▁모델	-4383
ald	-4384
▁village	-4385
▁Hall	-4386
▁built	-4387
▁daily	-4388
위에	-4389
▁즉	-4390
▁experi	-4391
▁갖고	-4392
▁건물	-4393
▁안정	-4394
▁mer	-4395
▁language	-4396
hest	-4397
yle	-4398
ovember	-4399
▁unf	-4400
▁traffic	-4401
▁표현	-4402
▁State	-4403
▁vehicles	-4404
▁자체	-4405
▁은	-4406
▁가는	-4407
▁은행	-4408
▁users	-4409
회에서	-4410
▁resident	-4411
▁secretary	-4412
▁rank	-4413
irm	-4414
하는데	-4415
▁One	-4416
▁왕	-4417
▁fell	-4418
▁거예요	-4419
▁officer	-4420
▁그럼	-4421
▁oil	-4422
▁alone	-4423
▁쪽	-4424
년부터	-4425
화에	-4426
▁위반	-4427
▁scene	-4428
조의	-4429
구청장	-4430
▁slow	-4431
▁Ph	-4432
▁넣	-4433
ender	-4434
▁doll	-4435
차를	-4436
▁step	-4437
▁수가	-4438
식에	-4439
▁hall	-4440
▁December	-4441
▁standard	-4442
eneral	-4443
▁Health	-4444
운동	-4445
agn	-4446
▁사망	-4447
lus	-4448
irector	-4449
세가	-4450
▁목소	-4451
▁하락	-4452
▁Christ	-4453
대의	-4454
▁아시아	-4455
▁fair	-4456
▁wear	-4457
book	-4458
▁누구	-4459
▁바랍니다	-4460
▁달리	-4461
▁기자	-4462
사로	-4463
▁보험	-4464
▁온라인	-4465
▁schedule	-4466
▁princip	-4467
▁둔	-4468
▁prop	-4469
▁Transport	-4470
▁carry	-4471
▁소득	-4472
▁문제를	-4473
▁inj	-4474
▁외국인	-4475
▁governor	-4476
었어요	-4477
▁$	-4478
▁And	-4479
rew	-4480
▁interested	-4481
come	-4482
▁dire	-4483
나는	-4484
ique	-4485
▁이전	-4486
▁rice	-4487
수의	-4488
▁favor	-4489
▁serious	-4490
▁transfer	-4491
▁professional	-4492
으니	-4493
▁peace	-4494
iful	-4495
▁출신	-4496
▁있던	-4497
▁November	-4498
▁terms	-4499
▁sym	-4500
chedul	-4501
▁burden	-4502
▁Feb	-4503
▁exceed	-4504
▁공식	-4505
더라도	-4506
▁anim	-4507
▁상황에서	-4508
▁Research	-4509
▁inside	-4510
▁예방	-4511
▁것이라고	-4512
▁충분	-4513
▁famous	-4514
▁certain	-4515
▁moment	-4516
▁시간을	-4517
istic	-4518
▁regional	-4519
▁대책	-4520
▁Soc	-4521
▁Sing	-4522
▁Dis	-4523
▁pub	-4524
▁easily	-4525
▁places	-4526
▁credit	-4527
▁Corporation	-4528
개의	-4529
▁loss	-4530
▁summer	-4531
▁대구	-4532
▁propos	-4533
▁stay	-4534
▁가진	-4535
▁cars	-4536
▁쇼	-4537
▁됐	-4538
▁candidate	-4539
임금	-4540
▁듣	-4541
▁Inf	-4542
▁힘들	-4543
In	-4544
▁대통령은	-4545
▁죄	-4546
스터	-4547
phas	-4548
에선	-4549
▁대한민	-4550
겠어요	-4551
▁Won	-4552
▁공무원	-4553
▁전략	-4554
▁규제	-4555
▁대중	-4556
▁played	-4557
▁poor	-4558
▁자유한국	-4559
▁questions	-4560
▁점검	-4561
▁seven	-4562
pecially	-4563
▁출연	-4564
▁God	-4565
fully	-4566
사고	-4567
▁pen	-4568
▁action	-4569
▁regarding	-4570
▁avail	-4571
▁비교	-4572
▁caus	-4573
▁일정	-4574
스크	-4575
▁Vice	-4576
▁woman	-4577
gart	-4578
▁toward	-4579
▁유치	-4580
▁우리나라	-4581
▁commercial	-4582
▁parking	-4583
▁혹시	-4584
pid	-4585
롭게	-4586
▁pref	-4587
▁include	-4588
▁이상의	-4589
▁receiving	-4590
년에	-4591
▁전화	-4592
▁immediately	-4593
▁깨	-4594
하고자	-4595
▁자신이	-4596
으로써	-4597
▁di	-4598
▁방향	-4599
▁거야	-4600
▁color	-4601
거리	-4602
▁ver	-4603
▁text	-4604
▁High	-4605
▁document	-4606
▁영상	-4607
▁opportunity	-4608
ports	-4609
▁operated	-4610
▁games	-4611
▁cra	-4612
▁progress	-4613
indergart	-4614
관계	-4615
▁Now	-4616
▁agencies	-4617
▁비해	-4618
드리	-4619
▁작은	-4620
전자	-4621
▁confirm	-4622
현지	-4623
▁schedul	-4624
사항	-4625
▁safe	-4626
적을	-4627
▁이야기	-4628
▁구체	-4629
▁aim	-4630
erc	-4631
▁Fed	-4632
▁emphas	-4633
소득	-4634
달러	-4635
▁parts	-4636
▁Because	-4637
장에게	-4638
▁highest	-4639
▁recommend	-4640
▁촬영	-4641
▁취업	-4642
▁central	-4643
▁정신	-4644
▁carried	-4645
▁살아	-4646
▁reflect	-4647
▁takes	-4648
▁항공	-4649
▁치료	-4650
▁driving	-4651
▁가져	-4652
▁시청	-4653
utiful	-4654
▁protect	-4655
▁communication	-4656
▁건축	-4657
▁방침	-4658
▁케이	-4659
받은	-4660
▁의견을	-4661
▁dest	-4662
이기	-4663
▁지하	-4664
▁구속	-4665
▁apartment	-4666
▁중구	-4667
▁부동산	-4668
▁participation	-4669
▁협의	-4670
▁bring	-4671
▁퍼	-4672
▁forward	-4673
▁바람	-4674
▁patients	-4675
르고	-4676
치고	-4677
▁Cont	-4678
▁drama	-4679
▁파악	-4680
▁정부의	-4681
▁흐	-4682
▁상담	-4683
▁수익	-4684
▁Labor	-4685
▁취소	-4686
▁available	-4687
▁property	-4688
▁picture	-4689
ruary	-4690
yes	-4691
▁autom	-4692
▁흔	-4693
▁같아요	-4694
▁희망	-4695
rehen	-4696
▁appointed	-4697
▁negotiations	-4698
▁Island	-4699
▁restaurant	-4700
▁issued	-4701
▁사실을	-4702
▁trying	-4703
▁excellent	-4704
▁Development	-4705
▁univers	-4706
▁창업	-4707
uties	-4708
abilities	-4709
량을	-4710
광역	-4711
▁performances	-4712
경찰	-4713
▁foot	-4714
▁father	-4715
ton	-4716
▁consumers	-4717
기의	-4718
수록	-4719
▁done	-4720
▁discl	-4721
▁하면	-4722
▁씨	-4723
▁sound	-4724
라이	-4725
▁콘텐츠	-4726
▁plant	-4727
▁필요가	-4728
▁details	-4729
▁제조	-4730
reed	-4731
▁cold	-4732
▁페	-4733
▁티	-4734
▁girl	-4735
▁받았다	-4736
▁deep	-4737
abled	-4738
▁Among	-4739
▁urban	-4740
▁tick	-4741
▁achieve	-4742
▁original	-4743
40	-4744
들에	-4745
leep	-4746
▁싱	-4747
▁통신	-4748
▁wanted	-4749
▁공격	-4750
여명이	-4751
astic	-4752
▁goods	-4753
▁Culture	-4754
▁considering	-4755
▁빈	-4756
▁90	-4757
일에	-4758
▁bar	-4759
▁teams	-4760
단을	-4761
▁union	-4762
▁내용을	-4763
▁talks	-4764
▁approval	-4765
▁불편	-4766
▁확정	-4767
related	-4768
▁Def	-4769
▁아름	-4770
▁평화	-4771
▁Lot	-4772
▁concentr	-4773
▁잔	-4774
▁대해서는	-4775
▁젊	-4776
▁반대	-4777
▁많다	-4778
▁access	-4779
하겠다	-4780
▁cele	-4781
▁actual	-4782
▁수상	-4783
▁알아	-4784
▁sea	-4785
도는	-4786
▁하는데	-4787
▁지원을	-4788
artments	-4789
▁대해서	-4790
▁profit	-4791
▁X	-4792
▁February	-4793
▁없습니다	-4794
가지	-4795
▁경기도는	-4796
ley	-4797
insula	-4798
▁읽	-4799
▁못한	-4800
▁가수	-4801
▁professor	-4802
▁35	-4803
▁standards	-4804
항의	-4805
▁corre	-4806
▁select	-4807
했을	-4808
▁이하	-4809
와의	-4810
▁compens	-4811
▁여자	-4812
▁Found	-4813
▁coming	-4814
▁움	-4815
▁fee	-4816
차가	-4817
▁전망이다	-4818
▁except	-4819
▁ball	-4820
▁quickly	-4821
▁선발	-4822
over	-4823
▁common	-4824
▁proced	-4825
▁꼭	-4826
▁Special	-4827
▁Ah	-4828
▁필요하다고	-4829
rehens	-4830
stitution	-4831
▁deliberation	-4832
▁Rec	-4833
▁learning	-4834
care	-4835
▁낙	-4836
erly	-4837
▁holding	-4838
▁prescribed	-4839
▁결과를	-4840
만큼	-4841
▁submitted	-4842
rim	-4843
▁시즌	-4844
▁concerning	-4845
▁Ab	-4846
▁쉽게	-4847
▁board	-4848
▁국토	-4849
mosp	-4850
▁형태	-4851
▁Let	-4852
트가	-4853
▁college	-4854
▁worth	-4855
포츠	-4856
▁condition	-4857
전이	-4858
▁ens	-4859
▁disapp	-4860
▁duties	-4861
▁doing	-4862
▁한다고	-4863
▁export	-4864
▁소송	-4865
▁주세요	-4866
▁analysis	-4867
▁showing	-4868
▁좌	-4869
▁KT	-4870
▁전환	-4871
igence	-4872
pite	-4873
▁mind	-4874
▁trend	-4875
▁prior	-4876
ery	-4877
스러	-4878
▁광고	-4879
▁pack	-4880
▁disaster	-4881
▁접수	-4882
jeong	-4883
▁impact	-4884
▁firm	-4885
ought	-4886
보험	-4887
▁Russia	-4888
▁저녁	-4889
pop	-4890
▁launch	-4891
성에	-4892
▁안에	-4893
ral	-4894
▁atmosp	-4895
리그	-4896
▁향후	-4897
▁presidential	-4898
▁법률	-4899
▁흥	-4900
어야	-4901
▁걱	-4902
▁화재	-4903
어를	-4904
▁도는	-4905
▁beautiful	-4906
egr	-4907
▁기억	-4908
▁페이	-4909
▁ant	-4910
useum	-4911
리지	-4912
▁waste	-4913
▁내부	-4914
▁session	-4915
▁사유	-4916
▁SNS	-4917
▁green	-4918
▁조정	-4919
서에	-4920
orthern	-4921
▁통합	-4922
ental	-4923
이오	-4924
▁(3	-4925
ivery	-4926
▁미세먼	-4927
▁risk	-4928
▁Security	-4929
▁Si	-4930
▁결혼	-4931
▁여름	-4932
▁dou	-4933
▁가능하다	-4934
▁잇	-4935
▁모습이	-4936
▁정보를	-4937
▁대출	-4938
jeon	-4939
▁Sm	-4940
▁pot	-4941
▁centers	-4942
▁eyes	-4943
ume	-4944
했는데	-4945
▁stores	-4946
▁corporate	-4947
▁reduced	-4948
▁이루어	-4949
▁pun	-4950
▁비롯해	-4951
▁활동을	-4952
▁듯	-4953
▁suspic	-4954
▁확산	-4955
▁입장	-4956
한테	-4957
isions	-4958
▁crime	-4959
▁소재	-4960
▁아침	-4961
투자	-4962
▁거주	-4963
ropri	-4964
▁mention	-4965
▁전기	-4966
관의	-4967
▁맞아	-4968
▁빌	-4969
지의	-4970
oms	-4971
▁존재	-4972
heon	-4973
평가	-4974
했으며	-4975
▁역사	-4976
▁mut	-4977
60	-4978
▁type	-4979
▁hands	-4980
▁제품을	-4981
ev	-4982
▁적이	-4983
▁abs	-4984
▁프로젝	-4985
▁발생한	-4986
iveness	-4987
▁Foundation	-4988
▁households	-4989
▁실제로	-4990
일이	-4991
월부터	-4992
▁network	-4993
▁<	-4994
▁determined	-4995
vention	-4996
▁quarter	-4997
▁pressure	-4998
▁dead	-4999
▁disease	-5000
icon	-5001
▁stop	-5002
▁대통령의	-5003
▁과학	-5004
▁보도했다	-5005
상의	-5006
CO	-5007
대한	-5008
노동	-5009
▁도움이	-5010
▁structure	-5011
스의	-5012
▁최소	-5013
▁Prof	-5014
▁drawing	-5015
▁스스로	-5016
▁phys	-5017
▁Support	-5018
▁것에	-5019
롯데	-5020
▁bran	-5021
▁예약	-5022
▁entire	-5023
▁metropolitan	-5024
비가	-5025
▁industries	-5026
▁doesn	-5027
▁distribution	-5028
▁Sy	-5029
▁displ	-5030
▁언급	-5031
▁잘못	-5032
▁앞두고	-5033
공무	-5034
▁주관	-5035
▁All	-5036
▁북미	-5037
▁saw	-5038
▁markets	-5039
▁hon	-5040
tainment	-5041
▁찬	-5042
ulated	-5043
new	-5044
진이	-5045
▁미국의	-5046
▁norm	-5047
down	-5048
▁rapid	-5049
되며	-5050
▁아동	-5051
▁fig	-5052
▁이유로	-5053
▁might	-5054
구의	-5055
▁division	-5056
▁true	-5057
ups	-5058
▁나선	-5059
pped	-5060
▁implementation	-5061
▁matter	-5062
▁Wa	-5063
▁counsel	-5064
iversary	-5065
▁그녀는	-5066
님이	-5067
▁red	-5068
▁felt	-5069
▁limit	-5070
▁보조	-5071
▁produced	-5072
▁sanctions	-5073
▁followed	-5074
isher	-5075
▁변호	-5076
▁움직	-5077
ught	-5078
▁speed	-5079
▁cho	-5080
▁concerns	-5081
리의	-5082
rap	-5083
▁복지	-5084
▁자유한국당	-5085
▁church	-5086
▁Welfare	-5087
▁발언	-5088
▁출시	-5089
▁혐의로	-5090
▁series	-5091
결과	-5092
반기	-5093
▁채용	-5094
▁Son	-5095
보는	-5096
▁adjust	-5097
ights	-5098
▁coup	-5099
▁봐	-5100
▁달러	-5101
▁2010	-5102
예술	-5103
ots	-5104
▁완료	-5105
▁Oh	-5106
urrency	-5107
▁신규	-5108
▁academ	-5109
▁required	-5110
▁Day	-5111
▁bri	-5112
▁estim	-5113
건이	-5114
상에	-5115
▁hy	-5116
▁thing	-5117
▁없었다	-5118
▁sites	-5119
▁기여	-5120
▁sure	-5121
▁encoura	-5122
▁Are	-5123
▁Cup	-5124
▁Mot	-5125
▁규정에	-5126
▁명이	-5127
▁줄어	-5128
관광	-5129
▁항상	-5130
▁tas	-5131
실을	-5132
▁movement	-5133
level	-5134
▁Tour	-5135
▁sense	-5136
▁assault	-5137
▁공부	-5138
이크	-5139
▁거의	-5140
cle	-5141
▁2011	-5142
▁데이터	-5143
▁활성화	-5144
기준	-5145
▁failed	-5146
met	-5147
▁learn	-5148
단의	-5149
▁경우가	-5150
▁caught	-5151
▁delivery	-5152
▁agricultural	-5153
▁가입	-5154
▁금액	-5155
hood	-5156
▁executive	-5157
반도	-5158
스럽	-5159
▁웃	-5160
▁organized	-5161
▁논란이	-5162
▁advert	-5163
이라며	-5164
▁exerc	-5165
▁ordered	-5166
▁필요하다	-5167
▁integr	-5168
▁raise	-5169
▁여전히	-5170
▁drug	-5171
호서	-5172
▁어제	-5173
▁wife	-5174
주민	-5175
▁나의	-5176
▁statement	-5177
▁Na	-5178
ji	-5179
▁build	-5180
earcher	-5181
▁위해서는	-5182
▁victims	-5183
▁dism	-5184
▁Me	-5185
▁books	-5186
▁갔	-5187
▁fast	-5188
▁Local	-5189
수는	-5190
구하고	-5191
ployment	-5192
▁동시에	-5193
aughter	-5194
▁원내	-5195
▁특징	-5196
rees	-5197
▁owners	-5198
▁message	-5199
▁Director	-5200
▁launched	-5201
▁남자	-5202
▁젊은	-5203
▁require	-5204
▁헌	-5205
▁독립	-5206
분을	-5207
▁lif	-5208
ograph	-5209
▁protection	-5210
▁봤	-5211
▁서비스를	-5212
정에	-5213
igation	-5214
▁작업	-5215
▁atmosphere	-5216
▁민주당	-5217
하기도	-5218
▁hom	-5219
▁installed	-5220
▁specific	-5221
▁difficulties	-5222
luded	-5223
aving	-5224
▁direction	-5225
▁도와	-5226
▁괜	-5227
▁화장	-5228
▁population	-5229
▁통한	-5230
▁스마트폰	-5231
▁서류	-5232
ably	-5233
▁forest	-5234
▁Defense	-5235
▁interp	-5236
▁behind	-5237
▁wide	-5238
장애	-5239
▁고민	-5240
urning	-5241
oud	-5242
▁AI	-5243
▁object	-5244
▁manage	-5245
▁incident	-5246
▁loan	-5247
해주	-5248
iel	-5249
▁그림	-5250
▁반응	-5251
▁비핵화	-5252
▁chairperson	-5253
OS	-5254
▁Koreans	-5255
▁부과	-5256
▁seek	-5257
▁업계	-5258
▁resources	-5259
▁보다	-5260
▁guarant	-5261
▁체결	-5262
▁function	-5263
▁남아	-5264
-2	-5265
▁오래	-5266
민주당	-5267
▁Lotte	-5268
▁scheduled	-5269
▁whole	-5270
▁Secretary	-5271
▁Bo	-5272
▁proceed	-5273
▁attack	-5274
atisf	-5275
atively	-5276
▁benefits	-5277
▁typ	-5278
▁smo	-5279
If	-5280
▁등장	-5281
▁서울시	-5282
▁의원이	-5283
cheong	-5284
▁뜨	-5285
자에	-5286
인으로	-5287
금융	-5288
▁변화	-5289
reg	-5290
▁Industrial	-5291
▁ten	-5292
▁전반	-5293
▁Jeoll	-5294
▁enterprises	-5295
irt	-5296
▁educational	-5297
▁below	-5298
▁reality	-5299
▁efficient	-5300
icip	-5301
▁guid	-5302
▁Technology	-5303
▁갈등	-5304
▁temperature	-5305
▁경남	-5306
▁바라	-5307
▁Saf	-5308
▁People	-5309
▁search	-5310
atform	-5311
▁tried	-5312
▁Profess	-5313
▁minister	-5314
하세요	-5315
▁wrong	-5316
▁fourth	-5317
Pop	-5318
▁obtain	-5319
행정	-5320
chol	-5321
▁롯데	-5322
▁옷	-5323
서울	-5324
▁Asia	-5325
자들은	-5326
▁그래서	-5327
▁sett	-5328
▁딸	-5329
▁중에서	-5330
inated	-5331
▁프랑	-5332
▁약속	-5333
ansion	-5334
기와	-5335
ony	-5336
acy	-5337
▁util	-5338
▁Il	-5339
▁deemed	-5340
▁말을	-5341
ishment	-5342
▁캠	-5343
▁King	-5344
▁remark	-5345
▁consider	-5346
▁bit	-5347
▁비롯한	-5348
현지시간	-5349
▁Mark	-5350
▁reduction	-5351
▁Cultural	-5352
▁오른	-5353
▁instead	-5354
▁comprehens	-5355
▁주차	-5356
▁곧	-5357
▁규칙	-5358
▁유통	-5359
광역시	-5360
▁participating	-5361
▁영국	-5362
▁skin	-5363
▁elderly	-5364
▁의원은	-5365
aries	-5366
ously	-5367
▁Fund	-5368
▁해서	-5369
▁rat	-5370
ighb	-5371
▁구청장이	-5372
선거	-5373
률이	-5374
▁anniversary	-5375
멤버	-5376
▁전자	-5377
▁외교	-5378
진을	-5379
▁않다	-5380
▁나와	-5381
▁weather	-5382
▁prosecut	-5383
▁intention	-5384
local	-5385
▁score	-5386
▁인한	-5387
▁itself	-5388
▁shopping	-5389
▁펼쳐	-5390
▁요즘	-5391
▁운전	-5392
standing	-5393
ode	-5394
▁제도	-5395
드립니다	-5396
▁사전	-5397
▁harm	-5398
▁entrance	-5399
▁accidents	-5400
▁Eun	-5401
▁falling	-5402
▁싶습니다	-5403
▁모르	-5404
▁장기	-5405
▁장애인	-5406
uck	-5407
oid	-5408
위는	-5409
▁kindergart	-5410
▁없을	-5411
▁한번	-5412
▁positive	-5413
▁디자인	-5414
▁이끌	-5415
▁원하는	-5416
▁Bu	-5417
▁예산의	-5418
▁dream	-5419
▁raising	-5420
▁결국	-5421
▁이것은	-5422
pro	-5423
▁사람은	-5424
▁Ul	-5425
널드	-5426
▁Many	-5427
▁싸	-5428
▁괜찮	-5429
▁bag	-5430
▁comes	-5431
▁국방	-5432
vere	-5433
light	-5434
▁제재	-5435
가고	-5436
itude	-5437
▁Prom	-5438
ires	-5439
▁appeared	-5440
▁died	-5441
▁보는	-5442
▁이사	-5443
▁earlier	-5444
▁entered	-5445
▁꼽	-5446
었는데	-5447
▁관객	-5448
▁cell	-5449
▁Pre	-5450
▁이들이	-5451
aching	-5452
▁techn	-5453
문이	-5454
▁민주	-5455
▁지원할	-5456
▁certific	-5457
▁occurred	-5458
경기	-5459
▁토론	-5460
대학교	-5461
▁sens	-5462
▁끊	-5463
▁celebr	-5464
▁skills	-5465
▁participants	-5466
ao	-5467
▁frequ	-5468
▁examination	-5469
발전	-5470
▁requested	-5471
▁rates	-5472
▁심사	-5473
▁houses	-5474
▁참석한	-5475
▁grand	-5476
린다	-5477
▁Ahn	-5478
athe	-5479
디오	-5480
rant	-5481
▁highly	-5482
▁밖	-5483
▁넘는	-5484
▁장소	-5485
▁gas	-5486
▁Ins	-5487
▁Business	-5488
’(	-5489
▁annual	-5490
ament	-5491
aced	-5492
▁기업이	-5493
phone	-5494
▁filed	-5495
▁‘201	-5496
▁introduce	-5497
▁솔	-5498
▁자기	-5499
▁관람	-5500
▁궁금	-5501
ulate	-5502
▁나섰다	-5503
▁ways	-5504
ule	-5505
▁타고	-5506
▁지지	-5507
구역	-5508
raw	-5509
▁자녀	-5510
▁advant	-5511
70	-5512
겼다	-5513
▁얼굴	-5514
▁통과	-5515
▁cong	-5516
struct	-5517
▁release	-5518
▁차례	-5519
▁accounting	-5520
진흥	-5521
▁winter	-5522
izes	-5523
▁혜	-5524
었지만	-5525
▁har	-5526
my	-5527
전문	-5528
▁Kong	-5529
▁주는	-5530
▁mass	-5531
ane	-5532
청은	-5533
ocks	-5534
stances	-5535
ource	-5536
▁son	-5537
▁image	-5538
iers	-5539
▁술	-5540
▁argu	-5541
▁volunte	-5542
▁universities	-5543
▁evidence	-5544
▁Donald	-5545
격을	-5546
▁Agr	-5547
▁hearing	-5548
▁Pen	-5549
▁Invest	-5550
▁headquarters	-5551
▁특별한	-5552
▁restrict	-5553
▁그렇게	-5554
▁Germany	-5555
▁위해서	-5556
esterday	-5557
마을	-5558
▁센터	-5559
▁잃	-5560
▁Ha	-5561
▁obs	-5562
▁달라	-5563
ronic	-5564
▁beginning	-5565
▁없다는	-5566
▁yesterday	-5567
▁소통	-5568
paragraph	-5569
▁eight	-5570
로는	-5571
▁player	-5572
▁멤버	-5573
▁circum	-5574
▁webs	-5575
심을	-5576
▁duty	-5577
▁사진을	-5578
▁user	-5579
▁쉬	-5580
▁벌어	-5581
endent	-5582
▁위원장은	-5583
▁stressed	-5584
▁subparagraph	-5585
▁unique	-5586
▁involved	-5587
▁명의	-5588
▁대체	-5589
allen	-5590
정한	-5591
▁Pyeong	-5592
▁exchang	-5593
단은	-5594
selves	-5595
ibility	-5596
▁때는	-5597
▁열리는	-5598
▁evalu	-5599
11	-5600
▁덧	-5601
▁link	-5602
▁도널드	-5603
▁헤	-5604
▁sleep	-5605
공사	-5606
▁reasons	-5607
년이	-5608
▁anything	-5609
▁지적했다	-5610
▁competit	-5611
▁box	-5612
▁자주	-5613
▁hotel	-5614
▁해도	-5615
▁Year	-5616
▁이유는	-5617
▁Safety	-5618
쳤다	-5619
▁degrees	-5620
원과	-5621
▁poll	-5622
▁아마	-5623
▁의한	-5624
aign	-5625
myeon	-5626
▁범죄	-5627
▁address	-5628
▁곳이	-5629
▁across	-5630
▁generation	-5631
▁재정	-5632
보다는	-5633
▁Blue	-5634
▁Art	-5635
,”	-5636
yu	-5637
▁superv	-5638
▁chance	-5639
▁Environment	-5640
▁visitors	-5641
▁loans	-5642
▁gather	-5643
▁아주	-5644
▁있는지	-5645
▁Central	-5646
본부	-5647
▁내놓	-5648
▁expansion	-5649
다운	-5650
▁Foreign	-5651
band	-5652
▁recruit	-5653
▁주로	-5654
▁worked	-5655
▁대한민국	-5656
▁2009	-5657
▁owner	-5658
▁comfort	-5659
seok	-5660
▁무료	-5661
▁상황이	-5662
▁조치	-5663
▁train	-5664
길을	-5665
▁수밖에	-5666
▁배송	-5667
osure	-5668
▁김정은	-5669
▁cook	-5670
▁비슷	-5671
▁visiting	-5672
▁인간	-5673
▁agreed	-5674
▁creating	-5675
프로	-5676
▁고양	-5677
▁variety	-5678
▁Baek	-5679
isory	-5680
▁suit	-5681
scale	-5682
▁축구	-5683
▁commissioned	-5684
aration	-5685
▁Lim	-5686
▁secure	-5687
▁internal	-5688
▁창출	-5689
▁Pros	-5690
▁warm	-5691
▁Science	-5692
▁pers	-5693
▁writing	-5694
▁빨리	-5695
▁whose	-5696
▁heavy	-5697
han	-5698
▁중단	-5699
▁platform	-5700
▁example	-5701
▁가정	-5702
▁libr	-5703
▁Chief	-5704
▁By	-5705
▁violence	-5706
▁융	-5707
대책	-5708
▁American	-5709
bum	-5710
▁범위에서	-5711
▁1,000	-5712
▁중에	-5713
▁집에	-5714
▁bal	-5715
▁졸	-5716
ology	-5717
▁usually	-5718
▁학생들이	-5719
▁메시	-5720
▁내용이	-5721
도에	-5722
▁neighb	-5723
▁tourism	-5724
▁우리의	-5725
인과	-5726
amed	-5727
atures	-5728
으로는	-5729
▁sud	-5730
▁posted	-5731
arp	-5732
주가	-5733
▁sudden	-5734
▁150	-5735
▁mountain	-5736
▁collection	-5737
▁우려가	-5738
▁위원장이	-5739
aps	-5740
▁같습니다	-5741
▁measure	-5742
▁Promotion	-5743
▁prem	-5744
▁theme	-5745
셔서	-5746
hwan	-5747
▁32	-5748
▁black	-5749
협력	-5750
안에	-5751
▁긍	-5752
▁안내	-5753
이자	-5754
▁접근	-5755
▁environmental	-5756
서관	-5757
▁intends	-5758
▁Tw	-5759
▁ability	-5760
▁hur	-5761
500	-5762
▁Economic	-5763
▁tit	-5764
▁taste	-5765
urities	-5766
▁Cl	-5767
ivered	-5768
▁Commun	-5769
▁ke	-5770
dern	-5771
▁입장을	-5772
▁enh	-5773
▁investigating	-5774
·1	-5775
wide	-5776
▁덕	-5777
▁33	-5778
▁popularity	-5779
▁teachers	-5780
▁Infrastructure	-5781
▁rout	-5782
▁도민	-5783
▁tourists	-5784
금의	-5785
▁technolog	-5786
선이	-5787
elligence	-5788
▁turned	-5789
▁reading	-5790
▁inspect	-5791
▁properly	-5792
▁dog	-5793
▁assess	-5794
gle	-5795
대학	-5796
▁implemented	-5797
▁겁	-5798
▁돈을	-5799
ledge	-5800
atched	-5801
▁discount	-5802
체육	-5803
▁따로	-5804
만이	-5805
▁조례는	-5806
olution	-5807
▁difference	-5808
드가	-5809
▁delivered	-5810
▁남성	-5811
▁sale	-5812
▁basis	-5813
▁researcher	-5814
▁학습	-5815
▁log	-5816
▁엔	-5817
▁York	-5818
▁solve	-5819
▁옮	-5820
▁IT	-5821
▁덧붙	-5822
▁비중	-5823
▁홍콩	-5824
▁경찰이	-5825
▁관련된	-5826
거운	-5827
▁이들	-5828
▁dig	-5829
▁tele	-5830
▁컴	-5831
door	-5832
(3	-5833
▁것과	-5834
▁Industry	-5835
▁마무	-5836
▁interpret	-5837
ott	-5838
▁우승	-5839
랫폼	-5840
▁proposed	-5841
보호	-5842
▁couldn	-5843
▁authority	-5844
▁lecture	-5845
▁effects	-5846
▁넓	-5847
▁축제	-5848
물의	-5849
▁주장했다	-5850
년을	-5851
▁맥	-5852
▁모여	-5853
▁좋아하는	-5854
▁대회	-5855
▁선고	-5856
most	-5857
▁aware	-5858
▁force	-5859
▁reports	-5860
▁시절	-5861
지와	-5862
씨의	-5863
▁더불어민주당	-5864
▁counter	-5865
▁단계	-5866
▁배경	-5867
▁관광객	-5868
▁limited	-5869
▁Suwon	-5870
▁disabled	-5871
▁청구	-5872
▁투입	-5873
ares	-5874
▁autonom	-5875
서가	-5876
▁Ki	-5877
▁죄송	-5878
▁긍정	-5879
▁처음으로	-5880
sy	-5881
iring	-5882
▁2020	-5883
▁correct	-5884
▁During	-5885
식의	-5886
▁벗	-5887
리기	-5888
문에	-5889
▁불구하고	-5890
▁defense	-5891
▁이번에	-5892
▁coach	-5893
▁얘기	-5894
ship	-5895
▁지켜	-5896
▁원내대표	-5897
▁부정	-5898
▁사실이	-5899
명으로	-5900
부와	-5901
▁하기	-5902
▁cry	-5903
▁Conf	-5904
▁너는	-5905
▁블록	-5906
▁Finance	-5907
▁주도	-5908
▁street	-5909
▁Col	-5910
만의	-5911
▁convenience	-5912
▁둘러	-5913
▁경북	-5914
▁회원	-5915
내는	-5916
seong	-5917
▁protest	-5918
▁Chungcheong	-5919
▁init	-5920
ohn	-5921
▁겨울	-5922
▁선생	-5923
▁elementary	-5924
▁Professor	-5925
▁염	-5926
부모	-5927
▁늘어나	-5928
▁blood	-5929
▁주최	-5930
세대	-5931
unk	-5932
gent	-5933
▁Jose	-5934
▁daughter	-5935
erve	-5936
▁버스	-5937
othes	-5938
▁36	-5939
urrently	-5940
▁2008	-5941
▁criticized	-5942
iconduct	-5943
시스템	-5944
▁Des	-5945
▁prevention	-5946
과학	-5947
지사	-5948
▁섬	-5949
권이	-5950
▁publ	-5951
rain	-5952
▁customer	-5953
▁candidates	-5954
att	-5955
▁않도록	-5956
▁indic	-5957
quare	-5958
▁branch	-5959
river	-5960
연합	-5961
▁하나에	-5962
▁predicted	-5963
▁최저임금	-5964
▁newly	-5965
▁Represent	-5966
▁arrested	-5967
▁compensation	-5968
IS	-5969
onst	-5970
▁website	-5971
▁corporation	-5972
▁대화	-5973
▁점에서	-5974
▁ensure	-5975
▁brother	-5976
▁옆	-5977
해도	-5978
chi	-5979
▁판결	-5980
사에서	-5981
▁보건	-5982
▁추정	-5983
▁국회의	-5984
▁criticism	-5985
▁emb	-5986
▁someone	-5987
▁주말	-5988
▁Food	-5989
▁engine	-5990
▁giving	-5991
▁banks	-5992
정상	-5993
▁아니다	-5994
▁않습니다	-5995
▁creation	-5996
▁App	-5997
산을	-5998
▁공모	-5999
▁Not	-6000
▁에너지	-6001
오는	-6002
▁East	-6003
▁nature	-6004
석이	-6005
분의	-6006
orter	-6007
isc	-6008
하겠습니다	-6009
▁영업	-6010
▁says	-6011
▁한국에	-6012
▁미리	-6013
inate	-6014
▁campaign	-6015
▁Peninsula	-6016
▁되었다	-6017
▁comput	-6018
▁satisf	-6019
▁방안을	-6020
▁엄마	-6021
intendent	-6022
▁지역의	-6023
▁moved	-6024
▁mach	-6025
▁providing	-6026
▁responsibility	-6027
▁특정	-6028
▁conflict	-6029
▁그것은	-6030
ffee	-6031
adium	-6032
▁아버	-6033
▁효과가	-6034
▁예상된다	-6035
▁재미	-6036
idge	-6037
plex	-6038
▁배출	-6039
▁포함한	-6040
▁이벤	-6041
▁buildings	-6042
▁장면	-6043
므로	-6044
▁Why	-6045
▁audience	-6046
▁comprehensive	-6047
▁depos	-6048
▁외부	-6049
▁이재	-6050
▁dance	-6051
friendly	-6052
ropriate	-6053
▁reached	-6054
▁나가	-6055
▁스트	-6056
에게는	-6057
▁appro	-6058
시고	-6059
▁출석	-6060
▁못하고	-6061
▁paper	-6062
▁38	-6063
ables	-6064
▁Law	-6065
▁기회를	-6066
▁마무리	-6067
athered	-6068
▁General	-6069
▁physical	-6070
▁사는	-6071
▁느끼	-6072
▁그대로	-6073
▁Head	-6074
chan	-6075
▁되면	-6076
▁Stud	-6077
▁비행	-6078
▁signed	-6079
▁repe	-6080
▁쏟	-6081
대회	-6082
▁뉴욕	-6083
▁중이다	-6084
▁tempor	-6085
▁especially	-6086
▁쌓	-6087
리와	-6088
ourn	-6089
▁대표가	-6090
▁있으면	-6091
▁fight	-6092
▁gathered	-6093
na	-6094
▁단순	-6095
▁mentioned	-6096
항공	-6097
hoon	-6098
▁returned	-6099
amer	-6100
▁새로	-6101
랐다	-6102
▁의해	-6103
▁카드	-6104
▁recognized	-6105
▁manufacturing	-6106
lia	-6107
sung	-6108
▁한국에서	-6109
▁푸	-6110
일로	-6111
ler	-6112
▁상대로	-6113
arily	-6114
▁소유	-6115
room	-6116
▁북한이	-6117
▁becoming	-6118
hwa	-6119
▁actually	-6120
▁rad	-6121
▁announcement	-6122
▁상황을	-6123
eral	-6124
▁calc	-6125
▁execut	-6126
▁탑	-6127
▁망	-6128
개를	-6129
▁않는다	-6130
▁Count	-6131
▁신뢰	-6132
▁proposal	-6133
▁그들은	-6134
가족	-6135
감독	-6136
▁만드는	-6137
▁Iran	-6138
▁simple	-6139
▁심각	-6140
ses	-6141
▁교류	-6142
▁반도	-6143
▁강력	-6144
▁34	-6145
어가	-6146
▁themselves	-6147
▁연장	-6148
ying	-6149
▁Kwon	-6150
▁걱정	-6151
▁발굴	-6152
▁hear	-6153
▁withd	-6154
▁3,	-6155
▁overall	-6156
▁바탕	-6157
▁싶어	-6158
▁겸	-6159
iled	-6160
▁Aut	-6161
TS	-6162
▁dispos	-6163
19	-6164
▁장관	-6165
▁innovation	-6166
▁시장은	-6167
▁ever	-6168
▁연기	-6169
으로부터	-6170
▁classes	-6171
▁preparing	-6172
▁이야기를	-6173
▁익	-6174
based	-6175
▁결제	-6176
▁exact	-6177
▁수업	-6178
▁table	-6179
게임	-6180
▁훈련	-6181
liament	-6182
▁대규모	-6183
▁weak	-6184
▁relatively	-6185
▁맞는	-6186
round	-6187
▁밖에	-6188
▁벤	-6189
▁clothes	-6190
시를	-6191
▁shown	-6192
▁프리	-6193
스코	-6194
▁통보	-6195
▁(1),	-6196
▁빼	-6197
▁driver	-6198
었어	-6199
▁회복	-6200
▁덧붙였다	-6201
인가요	-6202
▁mot	-6203
▁발표한	-6204
▁등은	-6205
▁만족	-6206
isl	-6207
ipped	-6208
제품	-6209
rate	-6210
▁이란	-6211
umb	-6212
▁Hee	-6213
▁notice	-6214
▁biggest	-6215
▁회계	-6216
emor	-6217
▁stri	-6218
’,	-6219
▁sharp	-6220
▁voice	-6221
▁swe	-6222
▁section	-6223
대는	-6224
▁대전	-6225
▁boy	-6226
위로	-6227
▁대법원	-6228
▁홈페이	-6229
▁Decree	-6230
되기	-6231
적이고	-6232
▁practice	-6233
▁시도	-6234
▁끼	-6235
아가	-6236
▁기초	-6237
▁responsible	-6238
▁45	-6239
▁높다	-6240
▁abroad	-6241
▁artists	-6242
▁recommended	-6243
▁challen	-6244
2,	-6245
▁hair	-6246
▁These	-6247
▁answer	-6248
▁입주	-6249
이지만	-6250
▁intens	-6251
으면서	-6252
▁idea	-6253
▁Sports	-6254
▁airport	-6255
▁suspected	-6256
화된	-6257
▁Aust	-6258
luding	-6259
▁normal	-6260
▁슬	-6261
▁Daejeon	-6262
▁nearby	-6263
▁수도권	-6264
▁consideration	-6265
▁분명	-6266
▁communic	-6267
▁Sam	-6268
▁인터뷰	-6269
arding	-6270
▁실무	-6271
▁들어가	-6272
▁꽃	-6273
함으로써	-6274
갔다	-6275
▁contest	-6276
▁행동	-6277
▁끝나	-6278
▁wait	-6279
▁convers	-6280
▁pm	-6281
ects	-6282
▁보수	-6283
히려	-6284
▁pick	-6285
▁records	-6286
▁2000	-6287
fect	-6288
▁gradu	-6289
bit	-6290
▁대표는	-6291
금은	-6292
화폐	-6293
▁비상	-6294
▁정부는	-6295
▁investors	-6296
▁lic	-6297
aves	-6298
▁severe	-6299
ming	-6300
▁ess	-6301
▁월드	-6302
▁brief	-6303
▁assist	-6304
▁himself	-6305
▁싶어요	-6306
▁running	-6307
▁advantage	-6308
formation	-6309
▁expectations	-6310
였던	-6311
ush	-6312
▁foundation	-6313
학과	-6314
pon	-6315
▁Complex	-6316
▁회담	-6317
▁River	-6318
▁보니	-6319
▁플랫폼	-6320
▁unit	-6321
▁affili	-6322
▁Pa	-6323
▁wall	-6324
estern	-6325
mm	-6326
▁사라	-6327
▁file	-6328
▁놓고	-6329
▁있었던	-6330
There	-6331
▁fr	-6332
▁점이	-6333
▁fix	-6334
▁elig	-6335
▁감독이	-6336
▁한반도	-6337
▁lun	-6338
심히	-6339
▁Market	-6340
▁셈	-6341
▁heads	-6342
▁occup	-6343
▁consultation	-6344
▁수술	-6345
▁불가능	-6346
▁huge	-6347
▁Hu	-6348
▁Chairperson	-6349
▁꾸준	-6350
신청	-6351
회사	-6352
▁수탁	-6353
▁슈	-6354
역을	-6355
▁taxi	-6356
▁reven	-6357
ganization	-6358
국은	-6359
국제	-6360
▁여론	-6361
▁힘을	-6362
▁순간	-6363
▁통일	-6364
▁allowed	-6365
▁낸	-6366
중앙	-6367
CTV	-6368
▁Women	-6369
리로	-6370
▁extra	-6371
▁semiconduct	-6372
▁includes	-6373
▁Yeon	-6374
▁qual	-6375
구에	-6376
▁검사	-6377
▁혜택	-6378
▁Tai	-6379
▁소비자	-6380
▁letter	-6381
▁묻	-6382
체인	-6383
lymp	-6384
▁threat	-6385
워크	-6386
▁조치를	-6387
▁adding	-6388
고를	-6389
▁낮은	-6390
▁맞춰	-6391
▁프랑스	-6392
냐는	-6393
분기	-6394
▁Prosecut	-6395
▁gold	-6396
▁Republic	-6397
▁location	-6398
▁지금까지	-6399
men	-6400
▁registered	-6401
ori	-6402
받고	-6403
▁프로젝트	-6404
▁Union	-6405
▁것이에요	-6406
▁closed	-6407
▁everyone	-6408
▁selling	-6409
▁출발	-6410
가의	-6411
▁sharing	-6412
▁warrant	-6413
▁career	-6414
▁strategy	-6415
▁Ro	-6416
▁보이는	-6417
▁rail	-6418
미래	-6419
▁업무를	-6420
▁successful	-6421
림픽	-6422
▁동물	-6423
▁ter	-6424
▁반도체	-6425
▁Olymp	-6426
▁becomes	-6427
▁gen	-6428
▁운영하는	-6429
iary	-6430
▁elections	-6431
▁국립	-6432
▁registration	-6433
▁연속	-6434
▁analyzed	-6435
▁Child	-6436
▁star	-6437
▁Project	-6438
▁revital	-6439
격이	-6440
▁이른	-6441
ruption	-6442
▁expanding	-6443
▁멀	-6444
tenance	-6445
하신	-6446
▁만약	-6447
▁prize	-6448
▁white	-6449
▁nothing	-6450
의가	-6451
월에	-6452
▁위치한	-6453
rought	-6454
▁되지	-6455
▁땅	-6456
▁빅	-6457
케팅	-6458
▁공사	-6459
▁오히려	-6460
▁정확한	-6461
stant	-6462
▁separate	-6463
mar	-6464
관에서	-6465
irit	-6466
▁era	-6467
▁mis	-6468
▁경찰에	-6469
au	-6470
kay	-6471
▁fully	-6472
▁긴급	-6473
점에서	-6474
▁War	-6475
▁goes	-6476
▁excess	-6477
▁찾는	-6478
▁From	-6479
실에서	-6480
resh	-6481
▁cross	-6482
▁suppl	-6483
▁강한	-6484
apore	-6485
▁petition	-6486
▁characteristics	-6487
포르	-6488
▁planned	-6489
형을	-6490
되었	-6491
▁Joseon	-6492
성장	-6493
▁자원	-6494
상은	-6495
▁인식	-6496
▁anti	-6497
▁vacation	-6498
로서	-6499
eria	-6500
▁운영에	-6501
▁당신에게	-6502
▁science	-6503
▁인기를	-6504
▁accom	-6505
▁냉	-6506
▁이와	-6507
▁modern	-6508
▁farmers	-6509
▁국정	-6510
▁했습니다	-6511
sik	-6512
법을	-6513
▁사항은	-6514
▁dismiss	-6515
iplom	-6516
annel	-6517
rog	-6518
▁waiting	-6519
▁수원	-6520
▁사용할	-6521
하려는	-6522
▁imm	-6523
▁주고	-6524
▁playing	-6525
▁문제는	-6526
▁신용	-6527
12	-6528
jung	-6529
▁refund	-6530
▁수수	-6531
려면	-6532
▁reach	-6533
▁northern	-6534
usband	-6535
겠지만	-6536
▁Hye	-6537
▁ratio	-6538
▁Taiwan	-6539
▁notify	-6540
▁jur	-6541
▁가격이	-6542
전쟁	-6543
ees	-6544
▁influence	-6545
▁검찰은	-6546
iance	-6547
iculture	-6548
▁provides	-6549
▁해소	-6550
▁unc	-6551
▁watching	-6552
협회	-6553
▁사실상	-6554
▁Federation	-6555
상으로	-6556
▁gl	-6557
▁Singapore	-6558
▁viewers	-6559
▁지자	-6560
▁reportedly	-6561
▁histor	-6562
▁prescribe	-6563
▁entertainment	-6564
페인	-6565
▁크다	-6566
성은	-6567
▁연계	-6568
▁joined	-6569
▁regions	-6570
▁52	-6571
▁임대	-6572
▁규모의	-6573
▁곡	-6574
▁sun	-6575
▁winning	-6576
▁supporting	-6577
▁introduction	-6578
▁나누	-6579
▁밝혀	-6580
▁사람을	-6581
▁Enforcement	-6582
▁respectively	-6583
▁entrusted	-6584
식품	-6585
▁cat	-6586
▁moving	-6587
▁뭐	-6588
▁제일	-6589
▁Da	-6590
▁스포츠	-6591
▁Airport	-6592
▁recorded	-6593
▁lawmakers	-6594
▁Deputy	-6595
▁coffee	-6596
주고	-6597
▁아시	-6598
▁surpr	-6599
▁재난	-6600
▁교체	-6601
▁bought	-6602
이야	-6603
▁자치	-6604
▁편의	-6605
▁Her	-6606
▁songs	-6607
년까지	-6608
▁crim	-6609
▁doct	-6610
▁deputy	-6611
▁gra	-6612
▁European	-6613
▁agend	-6614
호를	-6615
▁이상이	-6616
▁zone	-6617
▁older	-6618
▁published	-6619
▁농업	-6620
▁주거	-6621
ror	-6622
▁meetings	-6623
께서	-6624
당한	-6625
▁나도	-6626
▁appointment	-6627
tae	-6628
▁폐기	-6629
▁fost	-6630
▁designed	-6631
▁circumstances	-6632
▁모집	-6633
처리	-6634
하겠다는	-6635
▁rising	-6636
▁secret	-6637
▁attempt	-6638
지털	-6639
▁actor	-6640
',	-6641
▁원칙	-6642
iles	-6643
▁브라	-6644
드시	-6645
▁하나님	-6646
▁당연	-6647
▁presented	-6648
▁증거	-6649
란다	-6650
▁subsc	-6651
▁정기	-6652
▁demonst	-6653
▁exports	-6654
▁후에	-6655
▁pit	-6656
▁참여하는	-6657
gery	-6658
▁killed	-6659
▁ec	-6660
▁Currently	-6661
▁-	-6662
▁방침이다	-6663
▁prison	-6664
자기	-6665
▁혼자	-6666
▁옥	-6667
amily	-6668
▁monit	-6669
▁뇌	-6670
▁65	-6671
80	-6672
▁하여야	-6673
▁자율	-6674
▁전혀	-6675
▁Award	-6676
wh	-6677
병원	-6678
▁늘어	-6679
▁최초로	-6680
▁expanded	-6681
사들이	-6682
▁400	-6683
▁improved	-6684
▁hosted	-6685
▁싱가	-6686
chang	-6687
▁broke	-6688
▁camer	-6689
▁surround	-6690
려는	-6691
uel	-6692
기관의	-6693
▁looks	-6694
메라	-6695
프라	-6696
▁CCTV	-6697
▁뒷	-6698
▁피해를	-6699
중에	-6700
상공	-6701
▁dollars	-6702
▁healthy	-6703
▁노인	-6704
▁성폭	-6705
isdict	-6706
ashion	-6707
itation	-6708
▁여기에	-6709
order	-6710
▁SM	-6711
▁보장	-6712
▁separately	-6713
▁Tra	-6714
▁매일	-6715
호가	-6716
▁근거	-6717
▁커피	-6718
▁cover	-6719
▁Thank	-6720
▁claimed	-6721
cont	-6722
▁중국의	-6723
iency	-6724
▁흘	-6725
▁건가요	-6726
inner	-6727
▁Wave	-6728
▁thinking	-6729
anger	-6730
chain	-6731
ules	-6732
▁뮤	-6733
▁belong	-6734
우는	-6735
▁답변	-6736
▁휴대	-6737
▁everything	-6738
ED	-6739
▁competitiveness	-6740
시켜	-6741
▁Br	-6742
▁cop	-6743
▁wave	-6744
사무	-6745
해를	-6746
▁쏟아	-6747
okes	-6748
oes	-6749
▁대북	-6750
▁lawy	-6751
▁방식으로	-6752
▁determine	-6753
▁promoting	-6754
.5%	-6755
▁전남	-6756
alled	-6757
▁돕	-6758
용을	-6759
▁eye	-6760
▁drop	-6761
▁fields	-6762
▁jurisdict	-6763
▁열심히	-6764
만을	-6765
▁사법	-6766
▁Hot	-6767
▁incon	-6768
▁관측	-6769
▁완성	-6770
▁기회가	-6771
▁above	-6772
공항	-6773
▁시장이	-6774
▁longer	-6775
▁cancer	-6776
이드	-6777
리카	-6778
▁대변	-6779
▁Int	-6780
▁advanced	-6781
네시아	-6782
▁More	-6783
▁Hospital	-6784
▁selection	-6785
hye	-6786
▁앉	-6787
▁Hae	-6788
ampions	-6789
▁Byung	-6790
▁consist	-6791
▁나에게	-6792
▁없다고	-6793
▁Last	-6794
▁Woo	-6795
▁exercise	-6796
▁Pyong	-6797
▁improving	-6798
lex	-6799
에서의	-6800
▁formed	-6801
▁Hw	-6802
▁continues	-6803
▁담긴	-6804
▁있으	-6805
▁겁니다	-6806
▁investigate	-6807
▁여부를	-6808
ticles	-6809
▁smooth	-6810
eneration	-6811
▁Indones	-6812
▁replace	-6813
▁미술	-6814
▁마음을	-6815
목을	-6816
▁강원도	-6817
▁빛	-6818
▁중간	-6819
▁almost	-6820
행이	-6821
▁임명	-6822
▁earn	-6823
▁focused	-6824
▁receip	-6825
▁노조	-6826
▁오랜	-6827
▁선물	-6828
▁wish	-6829
▁assets	-6830
▁대기	-6831
▁전용	-6832
▁rental	-6833
▁supported	-6834
▁나오는	-6835
▁depending	-6836
한다면	-6837
분에	-6838
olf	-6839
▁측면	-6840
▁husband	-6841
▁이들은	-6842
▁medic	-6843
▁photos	-6844
iment	-6845
▁사용하는	-6846
▁부문	-6847
ranch	-6848
▁적극적으로	-6849
운드	-6850
bass	-6851
▁marketing	-6852
세계	-6853
▁바탕으로	-6854
▁불과	-6855
▁gap	-6856
15	-6857
ties	-6858
▁appearance	-6859
▁connection	-6860
▁counseling	-6861
ially	-6862
▁esc	-6863
▁parliament	-6864
리한	-6865
▁join	-6866
▁있을까요	-6867
▁revision	-6868
구조	-6869
▁것처럼	-6870
▁미국이	-6871
▁반드시	-6872
▁했어요	-6873
▁technologies	-6874
드릴	-6875
sible	-6876
▁지속적으로	-6877
▁suffering	-6878
▁주제로	-6879
▁Social	-6880
▁액	-6881
▁빠르게	-6882
내고	-6883
▁살펴	-6884
roll	-6885
▁도움을	-6886
▁beauty	-6887
▁임시	-6888
▁honor	-6889
▁stocks	-6890
▁금지	-6891
outhern	-6892
▁although	-6893
▁(2)	-6894
▁earth	-6895
▁types	-6896
▁Village	-6897
▁detailed	-6898
스에	-6899
ull	-6900
▁delayed	-6901
▁resolution	-6902
▁2007	-6903
▁pension	-6904
▁구민	-6905
▁받지	-6906
▁inconven	-6907
명과	-6908
▁자료를	-6909
▁schol	-6910
▁프로그램을	-6911
▁위원은	-6912
▁Ne	-6913
▁바뀌	-6914
▁불안	-6915
▁Also	-6916
▁hum	-6917
▁factory	-6918
담당	-6919
▁못하는	-6920
▁maintenance	-6921
▁바른	-6922
▁singer	-6923
▁의사	-6924
▁ple	-6925
▁일어나	-6926
▁자리를	-6927
▁한국어	-6928
▁Most	-6929
▁Austral	-6930
▁completely	-6931
▁served	-6932
▁ven	-6933
▁collected	-6934
▁측은	-6935
▁콘서	-6936
▁국무위원	-6937
▁위원회의	-6938
▁반발	-6939
▁Per	-6940
▁strength	-6941
▁인기	-6942
▁negative	-6943
▁사태	-6944
▁employee	-6945
▁인증	-6946
▁judge	-6947
▁diplom	-6948
▁knowledge	-6949
년대	-6950
ugg	-6951
▁mist	-6952
▁forced	-6953
▁consumer	-6954
▁altern	-6955
▁effective	-6956
▁Sejong	-6957
▁certificate	-6958
이지	-6959
seo	-6960
해보	-6961
▁soccer	-6962
스러운	-6963
▁word	-6964
ilding	-6965
▁allows	-6966
▁retire	-6967
질이	-6968
▁조사를	-6969
▁agenda	-6970
▁external	-6971
았던	-6972
▁눈에	-6973
▁diagn	-6974
▁changing	-6975
▁Jo	-6976
eech	-6977
▁max	-6978
▁최고의	-6979
▁Church	-6980
▁첨부	-6981
▁Fair	-6982
▁seem	-6983
▁jurisdiction	-6984
들로	-6985
▁유일	-6986
▁League	-6987
▁앞에서	-6988
▁싱가포르	-6989
▁provisions	-6990
제는	-6991
bol	-6992
▁Cons	-6993
▁deliver	-6994
▁remarks	-6995
▁Regarding	-6996
유치	-6997
▁ded	-6998
▁정하는	-6999
▁despite	-7000
같이	-7001
▁spot	-7002
▁의무	-7003
yn	-7004
▁mainly	-7005
▁channel	-7006
▁루	-7007
▁37	-7008
▁caf	-7009
▁range	-7010
구는	-7011
▁쇼핑	-7012
자치단체	-7013
udd	-7014
▁평양	-7015
▁Work	-7016
실이	-7017
▁(4	-7018
▁procedures	-7019
▁전쟁	-7020
▁seats	-7021
▁emphasized	-7022
▁주인	-7023
▁bond	-7024
▁brok	-7025
조합	-7026
cho	-7027
▁의심	-7028
▁평소	-7029
▁경험이	-7030
rec	-7031
▁시각	-7032
▁adop	-7033
나다	-7034
▁strug	-7035
▁concept	-7036
▁methods	-7037
있다	-7038
sun	-7039
▁Ho	-7040
▁인도네시아	-7041
▁infrastructure	-7042
▁snow	-7043
▁eligible	-7044
▁studying	-7045
(5	-7046
▁설계	-7047
▁졸업	-7048
니스	-7049
house	-7050
▁talent	-7051
▁라이	-7052
▁Move	-7053
어도	-7054
▁할인	-7055
▁broadcasting	-7056
▁모양	-7057
위원회의	-7058
▁developing	-7059
▁gender	-7060
ux	-7061
imb	-7062
▁연간	-7063
▁County	-7064
방송	-7065
▁serve	-7066
char	-7067
청이	-7068
▁album	-7069
차례	-7070
▁weeks	-7071
기고	-7072
▁생각이	-7073
▁lawmaker	-7074
amb	-7075
▁Port	-7076
▁item	-7077
▁units	-7078
경을	-7079
▁무슨	-7080
▁Mus	-7081
▁bab	-7082
▁article	-7083
▁쿠	-7084
▁선언	-7085
anks	-7086
1,	-7087
▁형성	-7088
▁principle	-7089
됐다고	-7090
▁Face	-7091
▁meal	-7092
▁specialized	-7093
▁causing	-7094
▁하다	-7095
actions	-7096
▁elected	-7097
TA	-7098
건의	-7099
▁나를	-7100
▁greatly	-7101
▁군사	-7102
▁차별	-7103
▁consecutive	-7104
표를	-7105
▁남편	-7106
▁관계자	-7107
▁gift	-7108
▁개혁	-7109
▁해석	-7110
▁페이스	-7111
▁consumption	-7112
▁grant	-7113
▁alleged	-7114
IC	-7115
▁의결	-7116
▁가서	-7117
▁공항	-7118
▁다가	-7119
▁종류	-7120
▁그러나	-7121
▁resc	-7122
▁Canad	-7123
수수	-7124
▁legisl	-7125
봉사	-7126
▁meters	-7127
▁cool	-7128
▁track	-7129
▁진술	-7130
▁폭염	-7131
▁때까지	-7132
▁완화	-7133
fficient	-7134
▁screening	-7135
▁fresh	-7136
▁균	-7137
력과	-7138
퓨터	-7139
▁수는	-7140
▁suc	-7141
▁북한의	-7142
atically	-7143
▁discussion	-7144
▁가득	-7145
▁전날	-7146
ivity	-7147
▁impos	-7148
▁independence	-7149
로를	-7150
uth	-7151
▁보였다	-7152
China	-7153
▁Phil	-7154
▁Mountain	-7155
▁Myung	-7156
aem	-7157
▁확실	-7158
taek	-7159
▁spring	-7160
▁Tourism	-7161
▁당신을	-7162
ifying	-7163
건설	-7164
▁ordinary	-7165
점으로	-7166
카드	-7167
overy	-7168
공간	-7169
산물	-7170
지자	-7171
▁사람의	-7172
해주세요	-7173
ancing	-7174
enture	-7175
▁leaving	-7176
▁delay	-7177
▁surgery	-7178
▁있다면	-7179
▁performed	-7180
▁동일	-7181
▁미세먼지	-7182
군이	-7183
▁신속	-7184
▁이행	-7185
▁처벌	-7186
▁rapidly	-7187
▁Pyongyang	-7188
25	-7189
▁dramas	-7190
▁불러	-7191
▁생태	-7192
▁자동	-7193
▁born	-7194
스와	-7195
ube	-7196
▁suffered	-7197
이션	-7198
체를	-7199
자동차	-7200
방을	-7201
▁식품	-7202
▁일으	-7203
▁premium	-7204
▁entering	-7205
팀이	-7206
▁Ear	-7207
공동	-7208
▁택시	-7209
▁succeed	-7210
▁바란다	-7211
▁오늘은	-7212
▁divers	-7213
▁prelim	-7214
▁strateg	-7215
▁체육	-7216
tery	-7217
▁lawsu	-7218
▁shoot	-7219
▁집행	-7220
upp	-7221
irae	-7222
▁memor	-7223
▁맺	-7224
▁초과	-7225
▁셈이다	-7226
▁throughout	-7227
씨를	-7228
▁conserv	-7229
load	-7230
▁대통령과	-7231
▁profits	-7232
바일	-7233
▁않으면	-7234
▁resign	-7235
분야	-7236
▁비가	-7237
▁교육을	-7238
▁기업의	-7239
(4	-7240
이에	-7241
▁govern	-7242
보가	-7243
▁불이	-7244
icious	-7245
pan	-7246
▁분양	-7247
▁쉽지	-7248
▁fishing	-7249
단지	-7250
▁representatives	-7251
율을	-7252
As	-7253
함에	-7254
▁10%	-7255
▁cash	-7256
▁movies	-7257
▁promoted	-7258
▁KB	-7259
▁납부	-7260
▁finished	-7261
▁disabilities	-7262
▁대기업	-7263
▁Movement	-7264
▁즐길	-7265
하려고	-7266
▁surv	-7267
cl	-7268
jo	-7269
지면	-7270
▁brought	-7271
시코	-7272
▁comment	-7273
▁divided	-7274
▁focusing	-7275
▁scope	-7276
▁없어요	-7277
▁appeal	-7278
▁choice	-7279
▁Roh	-7280
▁flight	-7281
이번	-7282
▁밝힌	-7283
▁빠른	-7284
▁speech	-7285
▁Representative	-7286
▁그냥	-7287
▁느낌	-7288
▁Plan	-7289
▁worried	-7290
▁눈길을	-7291
▁door	-7292
▁Start	-7293
▁library	-7294
▁Yu	-7295
▁197	-7296
▁학부모	-7297
▁pictures	-7298
▁Im	-7299
▁Net	-7300
ki	-7301
받는	-7302
▁restaurants	-7303
▁eating	-7304
▁significantly	-7305
ancy	-7306
▁사람들은	-7307
▁fra	-7308
▁Mal	-7309
▁nine	-7310
▁왔다	-7311
quality	-7312
▁background	-7313
▁짧	-7314
▁stable	-7315
▁Att	-7316
▁음식을	-7317
▁Cheon	-7318
▁taxes	-7319
▁remaining	-7320
▁사고가	-7321
점에	-7322
▁39	-7323
산이	-7324
▁lat	-7325
▁activity	-7326
▁육성	-7327
▁마케팅	-7328
았습니다	-7329
▁wants	-7330
13	-7331
▁어머니	-7332
▁수정	-7333
인들의	-7334
▁arts	-7335
▁ir	-7336
▁디지털	-7337
▁Employment	-7338
▁탓	-7339
▁끝난	-7340
▁ill	-7341
▁ing	-7342
증이	-7343
▁고위	-7344
umn	-7345
▁가야	-7346
▁paying	-7347
▁지원하는	-7348
료가	-7349
▁자세	-7350
usion	-7351
▁choose	-7352
적이다	-7353
▁weap	-7354
exic	-7355
▁standing	-7356
수로	-7357
했으나	-7358
▁Games	-7359
▁곳곳	-7360
▁베이	-7361
▁busy	-7362
▁virt	-7363
ze	-7364
명에	-7365
▁spirit	-7366
▁협상	-7367
jae	-7368
▁협조	-7369
▁computer	-7370
▁opportunities	-7371
▁인공	-7372
▁못했다	-7373
단에	-7374
제도	-7375
▁잇따	-7376
▁produce	-7377
▁객	-7378
멕시코	-7379
▁있지	-7380
gment	-7381
TV	-7382
ivest	-7383
호의	-7384
트워크	-7385
▁속에서	-7386
▁이름을	-7387
▁엘	-7388
▁다니	-7389
▁차이가	-7390
▁origin	-7391
hae	-7392
▁특수	-7393
▁Soo	-7394
where	-7395
간의	-7396
▁보안	-7397
▁추가로	-7398
▁거부	-7399
iced	-7400
▁opt	-7401
▁성과를	-7402
▁없고	-7403
▁Gim	-7404
▁본다	-7405
▁무엇보다	-7406
▁제공하는	-7407
▁ticket	-7408
mi	-7409
사업을	-7410
▁탐	-7411
▁Of	-7412
▁결과가	-7413
▁Life	-7414
▁wonder	-7415
▁estimated	-7416
▁강제	-7417
▁Our	-7418
▁부위원	-7419
정의	-7420
▁인권	-7421
▁Ulsan	-7422
카오	-7423
▁먹고	-7424
▁정의	-7425
▁fal	-7426
▁exclus	-7427
▁tariff	-7428
▁weight	-7429
스토	-7430
▁push	-7431
▁vill	-7432
▁meaningful	-7433
▁superintendent	-7434
ears	-7435
rs	-7436
acity	-7437
▁Brit	-7438
업계	-7439
웠다	-7440
회견	-7441
▁취약	-7442
▁subsidies	-7443
coming	-7444
▁교수는	-7445
▁grade	-7446
ivestock	-7447
년도	-7448
▁어려움을	-7449
▁arrived	-7450
상황	-7451
▁Bra	-7452
▁회장이	-7453
▁preparation	-7454
ids	-7455
aith	-7456
▁Facebook	-7457
▁관하여	-7458
▁preliminary	-7459
▁installation	-7460
심의	-7461
준다	-7462
▁게시	-7463
▁써	-7464
▁Ac	-7465
▁참여한	-7466
▁전해졌다	-7467
▁억	-7468
arb	-7469
▁county	-7470
▁contribute	-7471
▁아프	-7472
▁adult	-7473
Th	-7474
용이	-7475
▁식당	-7476
▁rose	-7477
▁rating	-7478
▁bott	-7479
▁훨	-7480
▁등에서	-7481
itness	-7482
▁avoid	-7483
EC	-7484
US	-7485
▁응답	-7486
계획을	-7487
나무	-7488
▁multi	-7489
▁실적	-7490
▁이익	-7491
릭터	-7492
민이	-7493
▁보통	-7494
▁이달	-7495
14	-7496
절한	-7497
▁prec	-7498
▁shared	-7499
ido	-7500
▁전부	-7501
▁Mexic	-7502
▁활발	-7503
▁50%	-7504
▁컴퓨터	-7505
iences	-7506
▁최대한	-7507
▁지역에	-7508
▁기준으로	-7509
▁욕	-7510
▁Human	-7511
▁cooperate	-7512
법인	-7513
전거	-7514
▁sil	-7515
▁했지만	-7516
▁coast	-7517
▁accounts	-7518
▁충분히	-7519
▁permission	-7520
▁훨씬	-7521
▁weekend	-7522
▁speak	-7523
▁메뉴	-7524
▁attending	-7525
▁가치	-7526
▁Fire	-7527
생을	-7528
▁배치	-7529
▁Hotel	-7530
▁앞에	-7531
▁과정을	-7532
대에서	-7533
osis	-7534
▁다소	-7535
▁제출하여야	-7536
액이	-7537
eun	-7538
▁부여	-7539
▁삼성전	-7540
▁renew	-7541
▁factors	-7542
▁understanding	-7543
▁Line	-7544
▁Enter	-7545
▁volunt	-7546
▁사과	-7547
시키는	-7548
▁공공기관	-7549
▁페이스북	-7550
▁criminal	-7551
이너	-7552
▁Services	-7553
▁mayor	-7554
계약	-7555
▁혐의를	-7556
▁Peace	-7557
▁카페	-7558
▁행사를	-7559
AT	-7560
no	-7561
▁콜	-7562
▁법인	-7563
▁Kak	-7564
▁twice	-7565
ificial	-7566
▁지하철	-7567
▁source	-7568
▁exchanges	-7569
▁fan	-7570
▁보이고	-7571
▁recon	-7572
▁감안	-7573
▁안에서	-7574
▁withdraw	-7575
▁기재	-7576
▁의미가	-7577
▁town	-7578
▁appropriate	-7579
트는	-7580
▁acting	-7581
▁proport	-7582
5,	-7583
▁세종	-7584
▁향상	-7585
evit	-7586
▁20%	-7587
▁캐나다	-7588
bok	-7589
ayer	-7590
▁정리	-7591
▁이내에	-7592
▁지적이	-7593
▁apartments	-7594
▁이탈	-7595
▁Motor	-7596
▁빚	-7597
▁지금은	-7598
▁틀	-7599
▁increases	-7600
▁방안	-7601
▁venue	-7602
뿐만	-7603
▁Par	-7604
▁시작한	-7605
▁인기가	-7606
▁forces	-7607
▁동의	-7608
▁achie	-7609
▁email	-7610
▁films	-7611
▁devices	-7612
rote	-7613
▁inevit	-7614
실에	-7615
▁기술을	-7616
▁remains	-7617
PO	-7618
iture	-7619
▁recruitment	-7620
▁너의	-7621
▁반복	-7622
▁캐릭터	-7623
▁America	-7624
▁앨	-7625
▁대만	-7626
▁열고	-7627
▁아름다운	-7628
▁nationwide	-7629
스탄	-7630
▁실질	-7631
▁directors	-7632
▁느껴	-7633
▁Jud	-7634
stitutional	-7635
▁멋	-7636
▁기상	-7637
ateg	-7638
vent	-7639
unicip	-7640
▁receipt	-7641
▁contains	-7642
.-	-7643
▁reb	-7644
face	-7645
▁liter	-7646
▁monthly	-7647
▁enhance	-7648
▁절반	-7649
iate	-7650
▁mix	-7651
▁soft	-7652
▁fish	-7653
▁feature	-7654
▁허용	-7655
라며	-7656
▁다르	-7657
▁계획을	-7658
▁reporters	-7659
.9%	-7660
icken	-7661
▁crow	-7662
▁ended	-7663
▁autonomous	-7664
▁Rules	-7665
▁repeated	-7666
▁기자회견	-7667
▁말고	-7668
▁그것을	-7669
▁dinner	-7670
▁subscri	-7671
▁impossible	-7672
▁뿌	-7673
▁정비	-7674
▁개편	-7675
back	-7676
▁사이에	-7677
웨이	-7678
▁Under	-7679
다른	-7680
ield	-7681
▁Tur	-7682
▁Budd	-7683
▁guarantee	-7684
▁subway	-7685
주를	-7686
해진	-7687
▁흡	-7688
함이	-7689
▁deleg	-7690
▁write	-7691
▁follows	-7692
▁managed	-7693
▁electronic	-7694
▁Mid	-7695
▁Compan	-7696
느냐	-7697
atur	-7698
▁nar	-7699
orough	-7700
▁guest	-7701
▁선호	-7702
억원을	-7703
▁Div	-7704
▁아시안	-7705
▁Every	-7706
스럽게	-7707
▁ath	-7708
▁id	-7709
▁주시	-7710
▁thereof	-7711
▁수용	-7712
cm	-7713
▁Sw	-7714
▁평가를	-7715
정상회담	-7716
명은	-7717
▁reject	-7718
▁executives	-7719
▁직후	-7720
▁Exp	-7721
▁bed	-7722
▁나타나	-7723
▁stories	-7724
▁지키	-7725
▁limits	-7726
▁Recently	-7727
af	-7728
책을	-7729
▁실패	-7730
지에서	-7731
▁emot	-7732
▁쏠	-7733
요일에	-7734
▁academic	-7735
▁abuse	-7736
▁걷	-7737
▁속에	-7738
▁모바일	-7739
▁ingred	-7740
하우	-7741
라면	-7742
질을	-7743
▁문을	-7744
원들이	-7745
▁wel	-7746
선언	-7747
ram	-7748
▁보관	-7749
▁Seok	-7750
▁들고	-7751
▁예비	-7752
▁절차	-7753
illing	-7754
▁벽	-7755
▁암호	-7756
▁wrote	-7757
▁생각합니다	-7758
▁believed	-7759
▁blockchain	-7760
▁전면	-7761
▁때마다	-7762
▁shot	-7763
ression	-7764
.7%	-7765
▁일상	-7766
▁적발	-7767
▁정책을	-7768
▁faith	-7769
▁suggested	-7770
▁leadership	-7771
임이	-7772
▁KBS	-7773
▁검찰이	-7774
▁decline	-7775
▁settlement	-7776
재를	-7777
.4%	-7778
:30	-7779
▁Heung	-7780
▁expects	-7781
site	-7782
전한	-7783
하되	-7784
▁기대된다	-7785
버스	-7786
oration	-7787
▁digital	-7788
▁앱	-7789
▁따뜻	-7790
▁꾸준히	-7791
orks	-7792
목이	-7793
▁예측	-7794
▁difficulty	-7795
▁위에	-7796
▁구입	-7797
erved	-7798
▁journ	-7799
igious	-7800
레스	-7801
▁decide	-7802
▁쓴	-7803
▁hop	-7804
▁judges	-7805
▁warning	-7806
▁decrease	-7807
히는	-7808
▁reward	-7809
자원	-7810
▁말이	-7811
▁rob	-7812
▁멕시코	-7813
▁offer	-7814
hol	-7815
▁cy	-7816
▁Did	-7817
▁Policy	-7818
훼손	-7819
이라도	-7820
▁male	-7821
▁spend	-7822
▁danger	-7823
▁mission	-7824
업무	-7825
▁김영	-7826
▁path	-7827
ulner	-7828
.3%	-7829
▁행사가	-7830
▁newsp	-7831
CC	-7832
FA	-7833
▁categ	-7834
sts	-7835
플레이	-7836
osan	-7837
▁Hol	-7838
▁shop	-7839
▁filled	-7840
▁vote	-7841
▁anyone	-7842
▁unfair	-7843
영화	-7844
▁나올	-7845
▁calls	-7846
▁있었습니다	-7847
.6%	-7848
▁즉시	-7849
보면	-7850
▁이용할	-7851
만원을	-7852
▁Coop	-7853
▁Small	-7854
▁꺼	-7855
▁그때	-7856
▁친환경	-7857
▁Chun	-7858
▁나머	-7859
▁이용해	-7860
▁unable	-7861
시험	-7862
지사가	-7863
▁시작했다	-7864
▁뽑	-7865
▁일단	-7866
▁충남	-7867
▁장관이	-7868
▁style	-7869
▁concerned	-7870
▁encourage	-7871
18	-7872
▁했던	-7873
▁myself	-7874
4,	-7875
많은	-7876
▁Geum	-7877
▁display	-7878
뮤니	-7879
▁위협	-7880
▁roads	-7881
생이	-7882
▁가까운	-7883
▁의하여	-7884
▁plants	-7885
▁Could	-7886
신을	-7887
▁상호	-7888
▁한국당	-7889
▁휘	-7890
같은	-7891
▁발급	-7892
▁sentenced	-7893
▁갖추	-7894
▁diseases	-7895
공원	-7896
yond	-7897
ij	-7898
전에서	-7899
overed	-7900
▁Exper	-7901
▁quant	-7902
▁beyond	-7903
▁내에	-7904
.2%	-7905
zil	-7906
▁바다	-7907
▁체계	-7908
▁상황이다	-7909
unicipal	-7910
▁missing	-7911
▁allegations	-7912
▁디자	-7913
▁발행	-7914
▁fashion	-7915
▁potential	-7916
▁든	-7917
▁소요	-7918
▁crack	-7919
▁모아	-7920
▁최선을	-7921
▁효과를	-7922
▁하면서	-7923
▁arch	-7924
▁목적	-7925
▁비슷한	-7926
▁유명한	-7927
opped	-7928
▁volume	-7929
▁가고	-7930
osmet	-7931
▁Museum	-7932
▁tourist	-7933
17	-7934
프트	-7935
▁happened	-7936
▁봄	-7937
음이	-7938
wha	-7939
▁광역	-7940
▁His	-7941
▁wearing	-7942
3,	-7943
▁나왔	-7944
▁실현	-7945
▁원활	-7946
North	-7947
▁leak	-7948
동이	-7949
ster	-7950
.8%	-7951
▁직무	-7952
▁ende	-7953
▁perfect	-7954
▁책을	-7955
시부터	-7956
▁damaged	-7957
▁인수	-7958
▁Agricultural	-7959
▁지자체	-7960
▁촉구	-7961
▁index	-7962
▁바꾸	-7963
▁표시	-7964
▁방문해	-7965
▁News	-7966
6,	-7967
▁기부	-7968
▁빠져	-7969
점은	-7970
▁초청	-7971
▁feeling	-7972
▁밥	-7973
▁calling	-7974
▁instruct	-7975
oday	-7976
▁shares	-7977
▁끌어	-7978
▁맞춤	-7979
하겠다고	-7980
▁Former	-7981
▁accused	-7982
▁혈	-7983
개가	-7984
군요	-7985
▁병원	-7986
▁guard	-7987
▁expensive	-7988
▁assessment	-7989
iated	-7990
▁블록체인	-7991
▁(5	-7992
mark	-7993
▁Table	-7994
▁피부	-7995
▁진입	-7996
▁진행된	-7997
▁rooms	-7998
▁nom	-7999
▁카메라	-8000
▁punishment	-8001
▁Information	-8002
▁사업이	-8003
▁solution	-8004
▁asking	-8005
어로	-8006
▁축하	-8007
▁코스	-8008
호에	-8009
▁false	-8010
▁4,	-8011
▁반면	-8012
▁흐름	-8013
▁때문입니다	-8014
▁sympt	-8015
▁종료	-8016
▁확인할	-8017
▁규정함을	-8018
▁smartphone	-8019
▁히	-8020
번째	-8021
▁PC	-8022
트로	-8023
▁나오고	-8024
위원회가	-8025
▁nice	-8026
시켰	-8027
▁figure	-8028
기구	-8029
식과	-8030
▁당부	-8031
▁Inter	-8032
대문	-8033
ivic	-8034
▁30%	-8035
▁BTS	-8036
▁압박	-8037
ipping	-8038
▁decreased	-8039
▁폴	-8040
▁부인	-8041
▁Comm	-8042
▁thorough	-8043
▁그곳	-8044
성도	-8045
▁Gun	-8046
▁seat	-8047
▁quite	-8048
과정	-8049
100	-8050
▁사건을	-8051
▁named	-8052
▁double	-8053
▁울산	-8054
리핀	-8055
▁모두가	-8056
riage	-8057
해온	-8058
▁마음이	-8059
▁많았다	-8060
▁revised	-8061
▁동영	-8062
▁있습니까	-8063
▁개막	-8064
▁그들의	-8065
으로서	-8066
▁기대하고	-8067
▁Division	-8068
재단	-8069
하시	-8070
▁평생	-8071
▁sister	-8072
▁willing	-8073
▁Fil	-8074
▁debt	-8075
▁vulner	-8076
▁수요가	-8077
▁About	-8078
에만	-8079
까지는	-8080
cing	-8081
▁법무	-8082
▁systems	-8083
▁연출	-8084
▁작가	-8085
▁stress	-8086
▁victory	-8087
▁processing	-8088
tes	-8089
▁medicine	-8090
▁가게	-8091
▁뛰어	-8092
▁통화	-8093
▁affected	-8094
▁crypt	-8095
▁finally	-8096
만으로	-8097
▁의혹을	-8098
▁island	-8099
리며	-8100
어진	-8101
▁48	-8102
▁extreme	-8103
이스	-8104
의료	-8105
주로	-8106
▁떠나	-8107
▁자체가	-8108
▁penal	-8109
▁reservation	-8110
▁습	-8111
소는	-8112
▁근처	-8113
▁회장	-8114
▁Goyang	-8115
됐고	-8116
ios	-8117
▁196	-8118
▁crimes	-8119
식으로	-8120
▁listen	-8121
▁endeavor	-8122
군의	-8123
▁등과	-8124
▁일제	-8125
▁이들의	-8126
경영	-8127
▁먹을	-8128
▁unlike	-8129
▁통계	-8130
▁farming	-8131
▁majority	-8132
▁advertise	-8133
▁conducting	-8134
바이오	-8135
▁intelligence	-8136
▁규모가	-8137
▁샘	-8138
고가	-8139
조정	-8140
보를	-8141
▁태풍	-8142
200	-8143
▁공감	-8144
▁volunteer	-8145
▁Youth	-8146
▁장은	-8147
▁lawsuit	-8148
▁attracting	-8149
▁task	-8150
▁instru	-8151
▁transl	-8152
▁43	-8153
▁씨가	-8154
phoon	-8155
소에	-8156
▁법원	-8157
공무원	-8158
▁trees	-8159
활동을	-8160
▁else	-8161
▁rein	-8162
▁title	-8163
▁그린	-8164
▁residential	-8165
▁새벽	-8166
▁좋을	-8167
nces	-8168
▁사업에	-8169
▁재산	-8170
▁Joon	-8171
▁retirement	-8172
▁여야	-8173
미가	-8174
▁사건이	-8175
▁association	-8176
meas	-8177
▁참석했다	-8178
▁Brazil	-8179
▁worker	-8180
oking	-8181
▁spent	-8182
▁Construction	-8183
▁챙	-8184
우고	-8185
▁한편	-8186
▁일부를	-8187
지기	-8188
시킨	-8189
▁갑자기	-8190
▁capacity	-8191
▁명예	-8192
▁자격	-8193
▁complaints	-8194
▁600	-8195
agers	-8196
▁Bare	-8197
▁master	-8198
▁foreigners	-8199
펀드	-8200
▁만난	-8201
▁temporary	-8202
▁semiconductor	-8203
▁ep	-8204
▁권한	-8205
▁creat	-8206
규직	-8207
▁ones	-8208
▁헬	-8209
▁lunch	-8210
▁counties	-8211
▁Russian	-8212
▁scholars	-8213
▁Insurance	-8214
관에	-8215
▁가르	-8216
트에	-8217
▁사상	-8218
mical	-8219
.1%	-8220
▁120	-8221
▁sn	-8222
▁손을	-8223
▁후반	-8224
▁discussions	-8225
▁홀	-8226
▁하겠습니다	-8227
▁풍부	-8228
▁상대적으로	-8229
▁기소	-8230
▁걸쳐	-8231
▁길을	-8232
▁크리스	-8233
▁보기	-8234
▁자본	-8235
▁시범	-8236
▁폭행	-8237
▁참석해	-8238
▁connect	-8239
가에	-8240
▁부분이	-8241
▁Kakao	-8242
▁patient	-8243
▁soldiers	-8244
▁삶의	-8245
▁먹는	-8246
▁운행	-8247
▁그들이	-8248
▁band	-8249
▁device	-8250
key	-8251
▁Through	-8252
▁Therefore	-8253
▁폭발	-8254
▁produc	-8255
more	-8256
▁actors	-8257
▁건립	-8258
▁바른미래	-8259
▁command	-8260
위의	-8261
근로	-8262
지게	-8263
▁계산	-8264
▁미국과	-8265
asion	-8266
▁ranked	-8267
▁민원	-8268
▁작용	-8269
16	-8270
재가	-8271
▁Sea	-8272
▁revenue	-8273
▁상징	-8274
kg	-8275
▁초기	-8276
▁runs	-8277
▁merch	-8278
▁discussed	-8279
▁단지	-8280
aint	-8281
iable	-8282
▁설명이다	-8283
상담	-8284
heast	-8285
▁meant	-8286
▁stopped	-8287
▁징수	-8288
▁remember	-8289
했기	-8290
place	-8291
션을	-8292
▁incur	-8293
▁곤	-8294
▁내에서	-8295
ureau	-8296
▁apprec	-8297
▁애플	-8298
▁직장	-8299
▁세부	-8300
▁orders	-8301
▁learned	-8302
회계	-8303
▁직업	-8304
racy	-8305
▁Bareun	-8306
▁baseball	-8307
받아	-8308
▁대로	-8309
▁EU	-8310
▁처음이다	-8311
▁lived	-8312
▁repair	-8313
▁theater	-8314
▁characters	-8315
▁인력	-8316
▁여기서	-8317
▁kept	-8318
▁violation	-8319
▁independent	-8320
위원회는	-8321
income	-8322
▁offices	-8323
off	-8324
▁Due	-8325
시오	-8326
▁해양	-8327
▁capt	-8328
▁이슈	-8329
▁적은	-8330
free	-8331
▁practical	-8332
▁Securities	-8333
개혁	-8334
▁drinking	-8335
권의	-8336
▁비밀	-8337
▁예고	-8338
uting	-8339
▁effort	-8340
▁듣고	-8341
▁공개된	-8342
▁수사를	-8343
aemun	-8344
▁France	-8345
▁잊	-8346
▁자전거	-8347
▁features	-8348
▁미안	-8349
도와	-8350
▁물어	-8351
▁커지고	-8352
aling	-8353
imate	-8354
▁pret	-8355
▁explan	-8356
▁남은	-8357
▁reducing	-8358
▁열어	-8359
▁자금	-8360
▁kinds	-8361
스티	-8362
▁저렴	-8363
월까지	-8364
allyu	-8365
▁목소리가	-8366
▁영화를	-8367
▁functions	-8368
▁시행령	-8369
▁talking	-8370
▁가을	-8371
▁있어야	-8372
등록	-8373
률을	-8374
▁42	-8375
▁좋다	-8376
협의회	-8377
연을	-8378
▁drunk	-8379
MW	-8380
▁인구	-8381
▁fixed	-8382
▁suspect	-8383
▁interests	-8384
pass	-8385
액을	-8386
▁한국인	-8387
▁발생하는	-8388
처가	-8389
▁지시	-8390
▁던	-8391
▁고령	-8392
▁foods	-8393
▁urgent	-8394
▁Af	-8395
▁kil	-8396
▁lots	-8397
ocation	-8398
심이	-8399
▁월드컵	-8400
commun	-8401
▁shock	-8402
▁cosmet	-8403
▁checked	-8404
▁조건	-8405
▁부족한	-8406
▁core	-8407
건축	-8408
▁55	-8409
ither	-8410
▁Organization	-8411
jun	-8412
▁광주시	-8413
▁mental	-8414
▁카카오	-8415
▁abol	-8416
비는	-8417
▁살고	-8418
raft	-8419
▁부탁드립니다	-8420
▁호주	-8421
▁공연을	-8422
▁개별	-8423
▁MBC	-8424
▁stab	-8425
sidering	-8426
▁admission	-8427
IT	-8428
▁수집	-8429
▁중국이	-8430
▁앨범	-8431
▁시장에	-8432
▁corres	-8433
▁couple	-8434
▁덜	-8435
▁물품	-8436
▁bul	-8437
▁마이크	-8438
▁Prosecutors	-8439
일에는	-8440
▁구청장에게	-8441
▁symbol	-8442
▁livestock	-8443
건강	-8444
▁거듭	-8445
▁악화	-8446
ightly	-8447
▁officers	-8448
▁reflected	-8449
▁기온	-8450
▁eco	-8451
▁의견이	-8452
▁cryptoc	-8453
▁피해가	-8454
▁Superv	-8455
▁짓	-8456
▁결론	-8457
▁공장	-8458
thening	-8459
▁pan	-8460
▁touch	-8461
학을	-8462
aging	-8463
▁baby	-8464
▁excessive	-8465
▁알게	-8466
asty	-8467
▁어려워	-8468
▁experiences	-8469
90	-8470
▁철저	-8471
ny	-8472
▁몽	-8473
▁싫	-8474
점검	-8475
▁부회	-8476
▁hyd	-8477
▁flag	-8478
▁pushed	-8479
▁scored	-8480
rep	-8481
▁달성	-8482
▁했는데	-8483
▁Inst	-8484
arden	-8485
▁Geun	-8486
▁behav	-8487
▁thank	-8488
▁같은데	-8489
▁줄어들	-8490
▁커뮤니	-8491
▁vers	-8492
▁웹	-8493
nes	-8494
▁briefing	-8495
아이	-8496
▁참여해	-8497
▁camera	-8498
▁resolve	-8499
▁commemor	-8500
관과	-8501
▁시작된	-8502
▁구체적인	-8503
▁도전	-8504
▁suspicion	-8505
신이	-8506
▁Ag	-8507
▁교환	-8508
▁신경	-8509
▁유엔	-8510
▁주식	-8511
▁암호화폐	-8512
▁looked	-8513
종합	-8514
협의	-8515
▁아이디어	-8516
▁deposit	-8517
▁sending	-8518
▁completion	-8519
▁prosecutor	-8520
▁않아요	-8521
▁stead	-8522
▁accepted	-8523
▁케	-8524
당의	-8525
시행	-8526
제에	-8527
▁절대	-8528
isted	-8529
ocracy	-8530
▁print	-8531
▁suddenly	-8532
▁manufacture	-8533
▁liqu	-8534
▁worry	-8535
▁favorite	-8536
24	-8537
연금	-8538
▁취임	-8539
aches	-8540
rogen	-8541
▁Economy	-8542
연이	-8543
▁Goo	-8544
eed	-8545
▁자랑	-8546
조사를	-8547
▁Today	-8548
▁establishing	-8549
ui	-8550
▁류	-8551
elong	-8552
▁finding	-8553
겠어	-8554
▁드리	-8555
aturday	-8556
▁interpreted	-8557
▁animals	-8558
셔야	-8559
▁단속	-8560
▁별표	-8561
▁doub	-8562
▁younger	-8563
▁currency	-8564
▁운용	-8565
▁secured	-8566
▁이외	-8567
merce	-8568
▁solid	-8569
해가	-8570
▁전년	-8571
▁parliamentary	-8572
▁Mi	-8573
▁조합	-8574
▁comments	-8575
▁뜻을	-8576
▁투표	-8577
▁새롭게	-8578
mirae	-8579
▁Christian	-8580
▁집에서	-8581
▁seemed	-8582
▁license	-8583
▁ju	-8584
▁나무	-8585
ownt	-8586
enger	-8587
당을	-8588
▁하나의	-8589
▁convenient	-8590
부서의	-8591
▁생각한다	-8592
▁injured	-8593
▁임금	-8594
king	-8595
▁브라질	-8596
▁이어질	-8597
▁kindergartens	-8598
체험	-8599
▁패션	-8600
▁완전히	-8601
▁politics	-8602
▁suspended	-8603
pective	-8604
▁applying	-8605
▁alternative	-8606
▁힘든	-8607
chul	-8608
▁ele	-8609
자리	-8610
▁골프	-8611
▁Del	-8612
▁minute	-8613
▁judicial	-8614
▁teen	-8615
▁기타	-8616
▁칼	-8617
▁accur	-8618
▁Unlike	-8619
▁Sub	-8620
cri	-8621
▁갖춘	-8622
▁포기	-8623
▁비용을	-8624
▁prob	-8625
▁experienced	-8626
사한	-8627
▁참고	-8628
▁흔들	-8629
▁Mon	-8630
▁터키	-8631
자들을	-8632
▁Bang	-8633
▁pleas	-8634
▁Koreas	-8635
▁refuge	-8636
▁유출	-8637
▁협약	-8638
▁진행된다	-8639
▁walking	-8640
▁gets	-8641
isheries	-8642
AN	-8643
▁하나요	-8644
개선	-8645
▁노출	-8646
▁아내	-8647
iors	-8648
▁스타트	-8649
지원센터	-8650
type	-8651
▁수많은	-8652
▁animal	-8653
▁painting	-8654
iling	-8655
▁integrated	-8656
▁declaration	-8657
▁타이	-8658
▁교육감	-8659
▁열린다	-8660
▁electricity	-8661
로가	-8662
▁Ui	-8663
▁시대	-8664
▁생각을	-8665
lines	-8666
▁Your	-8667
▁Middle	-8668
▁연습	-8669
끄는	-8670
면을	-8671
▁대표적인	-8672
▁sides	-8673
▁짐	-8674
질환	-8675
▁금리	-8676
▁담은	-8677
▁삶을	-8678
▁주인공	-8679
▁truth	-8680
니아	-8681
▁묘	-8682
▁downt	-8683
▁보낸	-8684
▁잠시	-8685
▁이메	-8686
▁담겨	-8687
▁관련한	-8688
▁기능을	-8689
시킬	-8690
▁44	-8691
▁artificial	-8692
▁trading	-8693
▁reporter	-8694
▁고발	-8695
pyeong	-8696
범죄	-8697
시설을	-8698
인에게	-8699
▁excluded	-8700
▁judgment	-8701
ampionship	-8702
았고	-8703
학년	-8704
▁vulnerable	-8705
법이	-8706
uri	-8707
▁Oper	-8708
▁accum	-8709
▁handle	-8710
▁historical	-8711
▁Grand	-8712
명한	-8713
▁진단	-8714
▁드러났다	-8715
▁manner	-8716
▁outstanding	-8717
▁쓸	-8718
지구	-8719
▁India	-8720
▁요리	-8721
▁따른다	-8722
ero	-8723
▁Tax	-8724
▁catch	-8725
▁rules	-8726
▁clearly	-8727
▁의뢰	-8728
▁flu	-8729
▁삼성전자	-8730
..	-8731
국민	-8732
▁점점	-8733
▁assign	-8734
▁museum	-8735
▁Spe	-8736
▁우수한	-8737
▁이유가	-8738
▁Energy	-8739
▁dischar	-8740
재산	-8741
▁하게	-8742
▁구성된	-8743
▁surrounding	-8744
▁presentation	-8745
분쯤	-8746
fin	-8747
▁San	-8748
▁책임을	-8749
▁5,	-8750
▁유튜	-8751
▁필요하다는	-8752
공단	-8753
되자	-8754
▁mall	-8755
▁국토교통	-8756
▁gradually	-8757
▁Ste	-8758
▁한국과	-8759
▁musical	-8760
▁requires	-8761
▁Indonesia	-8762
▁여러분	-8763
heung	-8764
▁폼	-8765
▁기대한다	-8766
holders	-8767
▁완벽	-8768
▁entry	-8769
교회	-8770
▁안타	-8771
▁에어	-8772
▁sad	-8773
▁지급할	-8774
▁적합	-8775
▁ICT	-8776
▁mag	-8777
▁attra	-8778
▁southern	-8779
▁입고	-8780
wook	-8781
▁jointly	-8782
허가	-8783
▁되나요	-8784
▁shut	-8785
▁지역에서	-8786
▁symptoms	-8787
치지	-8788
▁개입	-8789
▁출범	-8790
▁풀이	-8791
▁누구나	-8792
▁manip	-8793
▁announce	-8794
▁대표팀	-8795
▁이번이	-8796
부장	-8797
시민	-8798
▁만한	-8799
▁필리핀	-8800
▁golf	-8801
▁guide	-8802
DA	-8803
▁diss	-8804
bassad	-8805
▁lawyer	-8806
▁budgetary	-8807
ES	-8808
사진	-8809
우드	-8810
iar	-8811
▁guidance	-8812
▁Headquarters	-8813
받을	-8814
테크	-8815
▁fif	-8816
▁받아야	-8817
▁clos	-8818
학습	-8819
▁lik	-8820
국가	-8821
▁일찍	-8822
▁정한	-8823
▁Val	-8824
▁trou	-8825
elines	-8826
▁엄청	-8827
▁출입	-8828
▁말레이	-8829
▁주민들이	-8830
▁Rights	-8831
▁Official	-8832
▁accompan	-8833
▁어린이집	-8834
▁Investment	-8835
gence	-8836
▁laws	-8837
▁Mond	-8838
▁conver	-8839
▁square	-8840
자들에게	-8841
▁Mong	-8842
▁strengthening	-8843
드리겠습니다	-8844
▁다녀	-8845
▁인물	-8846
▁technical	-8847
▁삭	-8848
▁borrow	-8849
▁김문	-8850
▁소상공	-8851
▁저희가	-8852
▁falls	-8853
▁operator	-8854
▁window	-8855
▁고통	-8856
lowing	-8857
ynasty	-8858
제한	-8859
▁Hak	-8860
▁ice	-8861
▁참여할	-8862
▁homes	-8863
▁아르	-8864
▁좋지	-8865
▁Medical	-8866
▁끈	-8867
▁국내외	-8868
▁옛	-8869
▁가능성을	-8870
▁continuously	-8871
▁그려	-8872
▁추진하는	-8873
▁특징이다	-8874
소로	-8875
▁가구	-8876
▁bid	-8877
▁위원회	-8878
▁blue	-8879
▁현장에서	-8880
성의	-8881
rab	-8882
▁검색	-8883
▁그리	-8884
phones	-8885
▁stated	-8886
▁승인	-8887
▁실험	-8888
▁음주	-8889
자금	-8890
▁일어	-8891
▁태국	-8892
▁싶은데	-8893
iform	-8894
▁득	-8895
잖아	-8896
▁White	-8897
수사	-8898
▁점이다	-8899
▁debate	-8900
나가	-8901
▁ult	-8902
▁자신을	-8903
▁공직	-8904
▁품질	-8905
▁strongly	-8906
▁미디어	-8907
파크	-8908
▁만들기	-8909
석을	-8910
exp	-8911
▁나머지	-8912
서울특별시	-8913
▁Saturday	-8914
▁i	-8915
과는	-8916
문은	-8917
▁종교	-8918
▁여행을	-8919
▁innovative	-8920
▁interesting	-8921
▁길이	-8922
▁register	-8923
▁regardless	-8924
▁밝히	-8925
▁immig	-8926
▁Joo	-8927
ertain	-8928
▁marriage	-8929
▁Pal	-8930
단계	-8931
▁알려진	-8932
▁overcome	-8933
▁향해	-8934
▁Sohn	-8935
▁Malays	-8936
공개	-8937
▁누가	-8938
아시아	-8939
▁designation	-8940
▁Civil	-8941
▁후원	-8942
이라면	-8943
andal	-8944
▁ideas	-8945
▁tickets	-8946
대와	-8947
▁memory	-8948
▁일주	-8949
▁100%	-8950
▁Team	-8951
▁그를	-8952
▁보완	-8953
▁Pom	-8954
▁획	-8955
었을	-8956
▁활성화를	-8957
▁System	-8958
향을	-8959
ellow	-8960
engers	-8961
▁signs	-8962
rench	-8963
works	-8964
▁civic	-8965
▁굴	-8966
dom	-8967
▁기금	-8968
▁psy	-8969
▁장관은	-8970
eor	-8971
▁필수	-8972
▁defe	-8973
▁선수들이	-8974
▁인천광역시	-8975
제의	-8976
cks	-8977
ded	-8978
▁보상	-8979
▁trustee	-8980
bre	-8981
▁bi	-8982
▁오픈	-8983
▁시장의	-8984
▁제품이	-8985
▁committed	-8986
IN	-8987
규칙	-8988
▁법령	-8989
▁실천	-8990
ohol	-8991
▁SME	-8992
▁cancel	-8993
▁doctor	-8994
▁balance	-8995
hab	-8996
▁봉사	-8997
hel	-8998
▁수강	-8999
▁전북	-9000
▁치열	-9001
음에도	-9002
▁대부분의	-9003
ius	-9004
▁만날	-9005
▁보급	-9006
▁비난	-9007
▁dispute	-9008
▁applicants	-9009
개국	-9010
평화	-9011
▁개의	-9012
▁sentence	-9013
조차	-9014
run	-9015
▁Yi	-9016
▁당선	-9017
inite	-9018
▁gre	-9019
▁경기도와	-9020
bed	-9021
▁아쉬	-9022
▁드릴	-9023
▁mart	-9024
▁자산	-9025
▁Nowon	-9026
▁지배	-9027
▁scen	-9028
▁저에게	-9029
Japan	-9030
▁recovery	-9031
CEO	-9032
cohol	-9033
fight	-9034
▁중요하다	-9035
▁교회	-9036
▁환불	-9037
▁via	-9038
▁방법을	-9039
itizen	-9040
등급	-9041
시의	-9042
▁여의	-9043
페이오	-9044
▁노력하여야	-9045
▁occurs	-9046
▁곳에	-9047
▁119	-9048
▁운영을	-9049
▁2016,	-9050
regular	-9051
▁깊은	-9052
▁신설	-9053
▁hor	-9054
▁의혹이	-9055
neung	-9056
되었습니다	-9057
▁thanks	-9058
▁Pyeongtaek	-9059
지며	-9060
경기도	-9061
▁amend	-9062
종의	-9063
농업	-9064
▁레이	-9065
▁시군	-9066
▁aimed	-9067
▁dro	-9068
▁그러면	-9069
▁Pompe	-9070
▁departments	-9071
▁혹은	-9072
ote	-9073
▁허가	-9074
▁기울	-9075
▁이건	-9076
kyung	-9077
▁chicken	-9078
▁incurred	-9079
법에	-9080
▁spons	-9081
▁transactions	-9082
상품	-9083
▁boo	-9084
▁만들고	-9085
▁phen	-9086
▁rare	-9087
▁stars	-9088
▁10,000	-9089
▁Canada	-9090
처를	-9091
▁그녀의	-9092
졌습니다	-9093
▁Friday	-9094
영업	-9095
▁arm	-9096
▁stone	-9097
▁구분	-9098
▁부서	-9099
▁사우	-9100
▁그래도	-9101
▁변화가	-9102
▁damages	-9103
▁연예	-9104
▁criteria	-9105
7,	-9106
▁scale	-9107
▁discrim	-9108
▁춤	-9109
▁wid	-9110
▁될까요	-9111
▁Philipp	-9112
▁Children	-9113
▁ingredients	-9114
yeo	-9115
었다고	-9116
▁제외한	-9117
▁okay	-9118
▁gives	-9119
▁말레이시아	-9120
▁amid	-9121
▁regulation	-9122
▁훌	-9123
▁검증	-9124
▁북부	-9125
재정	-9126
▁발생할	-9127
▁갤	-9128
▁salary	-9129
▁Bar	-9130
리즈	-9131
▁부진	-9132
▁지구	-9133
▁machine	-9134
▁approved	-9135
▁conservative	-9136
ER	-9137
▁Pan	-9138
▁강력한	-9139
▁알려져	-9140
called	-9141
▁촉진	-9142
▁늘어난	-9143
▁failure	-9144
▁Australia	-9145
▁핸	-9146
▁불거	-9147
봤다	-9148
▁이틀	-9149
▁인프라	-9150
▁wood	-9151
▁fraud	-9152
▁굉	-9153
됐던	-9154
▁선임	-9155
▁떨어진	-9156
▁videos	-9157
joon	-9158
▁프리미	-9159
▁strike	-9160
유의	-9161
▁재무	-9162
상에서	-9163
▁grounds	-9164
안은	-9165
▁사장	-9166
▁외에	-9167
▁meat	-9168
▁tree	-9169
▁consulting	-9170
▁Person	-9171
▁Bareunmirae	-9172
졌고	-9173
omb	-9174
년에는	-9175
▁tasks	-9176
ym	-9177
▁오르	-9178
icro	-9179
▁goals	-9180
yr	-9181
▁46	-9182
▁높이	-9183
줍니다	-9184
▁route	-9185
▁creative	-9186
Se	-9187
▁간의	-9188
▁제거	-9189
▁보유한	-9190
▁아이돌	-9191
▁reporting	-9192
▁데뷔	-9193
▁Sum	-9194
▁되었습니다	-9195
AI	-9196
▁널	-9197
만에	-9198
▁겪고	-9199
▁적극적인	-9200
▁cryptocurrency	-9201
▁mur	-9202
▁exem	-9203
▁drawn	-9204
인트	-9205
▁클럽	-9206
▁fat	-9207
▁Google	-9208
▁conversation	-9209
▁장비	-9210
iplinary	-9211
▁connected	-9212
5%	-9213
시다	-9214
속도로	-9215
employ	-9216
▁forecast	-9217
▁suspension	-9218
▁subparagraphs	-9219
계층	-9220
▁자문	-9221
▁shape	-9222
▁checking	-9223
▁corporations	-9224
피언	-9225
▁한국을	-9226
erent	-9227
▁laugh	-9228
▁attracted	-9229
▁원래	-9230
▁lose	-9231
▁certification	-9232
중한	-9233
ole	-9234
myung	-9235
ousand	-9236
▁vo	-9237
▁종사	-9238
▁Monday	-9239
-3	-9240
식은	-9241
▁시장에서	-9242
▁phenomen	-9243
PG	-9244
▁구간	-9245
주시면	-9246
▁어렵다	-9247
▁제품은	-9248
novation	-9249
▁believes	-9250
▁역대	-9251
▁시작으로	-9252
▁recommendation	-9253
예산	-9254
장애인	-9255
▁transaction	-9256
9,	-9257
▁출산	-9258
▁dark	-9259
▁upon	-9260
▁Olympics	-9261
운용	-9262
▁flood	-9263
황을	-9264
▁시내	-9265
▁rich	-9266
okesman	-9267
▁distributed	-9268
aters	-9269
▁발표했다	-9270
▁frequently	-9271
▁샘플	-9272
▁지출	-9273
▁collabor	-9274
▁까	-9275
방이	-9276
효과	-9277
▁부총	-9278
▁비중이	-9279
▁Film	-9280
▁destro	-9281
▁earnest	-9282
▁끝에	-9283
▁지연	-9284
▁1.5	-9285
심사	-9286
▁노원	-9287
쪽으로	-9288
▁realize	-9289
▁Mat	-9290
▁Was	-9291
▁상반기	-9292
▁확인해	-9293
▁buses	-9294
니터	-9295
▁관세	-9296
▁상영	-9297
▁사랑을	-9298
▁save	-9299
▁uniform	-9300
▁개설	-9301
▁네트워크	-9302
▁쌍	-9303
know	-9304
▁사전에	-9305
▁subsidize	-9306
▁efficiency	-9307
관련	-9308
댓글	-9309
비용	-9310
▁상장	-9311
▁확장	-9312
▁행사는	-9313
asters	-9314
▁evening	-9315
▁attitude	-9316
▁constant	-9317
▁Considering	-9318
Gu	-9319
MZ	-9320
든지	-9321
▁거리	-9322
▁김문수	-9323
▁Sund	-9324
▁narrow	-9325
▁나갈	-9326
▁부담이	-9327
▁YouT	-9328
▁enforcement	-9329
▁문화를	-9330
▁굉장	-9331
▁일은	-9332
▁선생님	-9333
▁위원장	-9334
▁lines	-9335
▁importance	-9336
▁왼	-9337
재판	-9338
▁느낄	-9339
▁tired	-9340
▁Adv	-9341
▁확인됐다	-9342
▁refer	-9343
▁concluded	-9344
itime	-9345
▁eventually	-9346
▁Forest	-9347
long	-9348
▁seeing	-9349
▁전력	-9350
▁models	-9351
▁witness	-9352
▁composed	-9353
▁민족	-9354
icide	-9355
▁고등학교	-9356
▁기록했다	-9357
▁아이들이	-9358
▁폼페이오	-9359
▁causes	-9360
▁UN	-9361
▁fier	-9362
▁구글	-9363
▁친구가	-9364
▁포함된	-9365
▁손흥	-9366
(6	-9367
챔피언	-9368
▁Sin	-9369
▁지방자치단체	-9370
▁confident	-9371
ja	-9372
▁쓰레	-9373
▁올해는	-9374
▁하반기	-9375
▁loved	-9376
▁putting	-9377
▁단독	-9378
▁rural	-9379
▁latest	-9380
▁childcare	-9381
▁essential	-9382
일은	-9383
▁심의를	-9384
▁Arts	-9385
▁typhoon	-9386
▁주의	-9387
▁열렸다	-9388
선수	-9389
uff	-9390
▁어울	-9391
▁연말	-9392
정으로	-9393
▁Camp	-9394
▁쌀	-9395
▁2,000	-9396
-0	-9397
교류	-9398
▁250	-9399
▁상황에	-9400
▁corruption	-9401
계의	-9402
없는	-9403
▁argued	-9404
▁finish	-9405
▁김성	-9406
undred	-9407
▁‘2018	-9408
▁반환	-9409
▁방지	-9410
▁dry	-9411
▁사업은	-9412
▁1000	-9413
▁plastic	-9414
역이	-9415
▁글을	-9416
ogue	-9417
▁flex	-9418
▁menu	-9419
▁bottom	-9420
면에	-9421
▁ran	-9422
▁drive	-9423
▁감사합니다	-9424
▁maximum	-9425
미를	-9426
▁증권	-9427
연구원	-9428
▁SBS	-9429
▁멈	-9430
부서	-9431
ensive	-9432
▁regret	-9433
▁justice	-9434
▁Ryu	-9435
▁watched	-9436
▁평택	-9437
▁Girl	-9438
▁stra	-9439
▁listed	-9440
화로	-9441
▁리더	-9442
▁rum	-9443
▁있음을	-9444
▁uses	-9445
독교	-9446
gang	-9447
▁Soon	-9448
▁nurs	-9449
▁wages	-9450
▁당사	-9451
▁발달	-9452
▁스페인	-9453
▁특허	-9454
▁도서관	-9455
▁들어서	-9456
▁심각한	-9457
▁dial	-9458
▁minim	-9459
▁Mexico	-9460
employed	-9461
▁보존	-9462
▁아니냐는	-9463
▁battle	-9464
▁Cheonan	-9465
▁경제적	-9466
ulating	-9467
▁Academ	-9468
iberation	-9469
▁achieved	-9470
▁간담	-9471
스에서	-9472
▁helped	-9473
화와	-9474
▁지휘	-9475
▁징역	-9476
▁경기를	-9477
▁Road	-9478
8,	-9479
li	-9480
여성	-9481
▁명확	-9482
▁훼손	-9483
티브	-9484
▁rule	-9485
▁Est	-9486
ued	-9487
▁수비	-9488
part	-9489
∼2	-9490
▁면접	-9491
▁대해서도	-9492
▁names	-9493
▁distance	-9494
eorological	-9495
▁정한다	-9496
▁블랙	-9497
▁채널	-9498
▁초대	-9499
▁depart	-9500
건에	-9501
▁강남구	-9502
▁Green	-9503
▁sometimes	-9504
근혜	-9505
증권	-9506
향이	-9507
▁비즈	-9508
▁옮겨	-9509
▁시민들이	-9510
▁바른미래당	-9511
▁outdoor	-9512
▁kindergarten	-9513
gn	-9514
유가	-9515
wol	-9516
ystem	-9517
하이	-9518
▁가까이	-9519
nings	-9520
▁haven	-9521
▁Jeolla	-9522
▁컸	-9523
▁문제로	-9524
▁받아들	-9525
▁French	-9526
▁가로	-9527
amples	-9528
▁CJ	-9529
▁정착	-9530
▁체크	-9531
oke	-9532
▁Any	-9533
orage	-9534
▁센	-9535
▁성남	-9536
▁총괄	-9537
▁포함해	-9538
▁와서	-9539
▁sky	-9540
▁감독은	-9541
▁주목된다	-9542
▁officially	-9543
▁포장	-9544
ulations	-9545
▁alcohol	-9546
▁인정하는	-9547
▁values	-9548
▁공익	-9549
▁regime	-9550
▁똑	-9551
▁양성	-9552
▁작년	-9553
▁emerged	-9554
▁맨	-9555
동의	-9556
사인	-9557
▁부품	-9558
▁194	-9559
▁벗어나	-9560
▁operations	-9561
AR	-9562
▁밝혔	-9563
▁Tem	-9564
▁전까지	-9565
▁boost	-9566
▁Stadium	-9567
형이	-9568
십시오	-9569
▁multip	-9570
▁awareness	-9571
▁courses	-9572
▁못해	-9573
▁provision	-9574
▁경기가	-9575
▁levels	-9576
▁finance	-9577
▁환자	-9578
▁Fol	-9579
▁placed	-9580
▁subjects	-9581
소의	-9582
▁rescue	-9583
▁Supervisory	-9584
fl	-9585
aved	-9586
돼야	-9587
참여	-9588
▁작업을	-9589
일간	-9590
▁낮아	-9591
▁compr	-9592
▁partners	-9593
직원	-9594
▁극복	-9595
▁누군	-9596
▁고객이	-9597
▁stre	-9598
량의	-9599
소에서	-9600
▁Hallyu	-9601
2)	-9602
▁메이	-9603
▁자는	-9604
itect	-9605
▁본격적인	-9606
▁married	-9607
▁birthday	-9608
▁cosmetics	-9609
ask	-9610
▁들어간	-9611
됨에	-9612
joo	-9613
▁상품을	-9614
▁할머니	-9615
▁remo	-9616
▁Seongnam	-9617
▁donation	-9618
ps	-9619
▁말해	-9620
▁Wed	-9621
▁construct	-9622
▁늘고	-9623
▁경험을	-9624
power	-9625
대출	-9626
▁댓글	-9627
▁생긴	-9628
됐다는	-9629
▁coord	-9630
▁century	-9631
▁내다	-9632
역에서	-9633
inter	-9634
yed	-9635
됐지만	-9636
▁complaint	-9637
▁purchased	-9638
▁개방	-9639
▁sectors	-9640
▁맞춤형	-9641
▁West	-9642
▁minor	-9643
▁veget	-9644
이면	-9645
▁대학생	-9646
▁뜨거운	-9647
▁사례가	-9648
설팅	-9649
▁연령	-9650
▁입학	-9651
▁pil	-9652
ohang	-9653
▁기업들이	-9654
▁괴	-9655
▁올려	-9656
▁거론	-9657
▁모으	-9658
▁전공	-9659
▁공연이	-9660
▁scandal	-9661
▁priority	-9662
▁Gyeongnam	-9663
▁부상	-9664
▁노력을	-9665
▁confidence	-9666
soon	-9667
가능	-9668
▁저의	-9669
▁분석했다	-9670
▁제외하고	-9671
▁happen	-9672
bassador	-9673
▁disclosure	-9674
▁내고	-9675
▁만남	-9676
▁인하	-9677
▁idol	-9678
▁passion	-9679
sa	-9680
:00	-9681
데이터	-9682
여명의	-9683
▁충북	-9684
upper	-9685
▁wors	-9686
▁fierce	-9687
▁institute	-9688
▁그간	-9689
▁집단	-9690
▁선수가	-9691
going	-9692
▁Power	-9693
osystem	-9694
class	-9695
▁2022	-9696
▁천안	-9697
▁그런데	-9698
▁emerging	-9699
▁급격	-9700
▁싶다	-9701
known	-9702
▁응원	-9703
▁화려	-9704
▁경기도의	-9705
▁당부했다	-9706
▁harass	-9707
▁individuals	-9708
▁무엇을	-9709
▁생각해	-9710
▁firms	-9711
▁가치를	-9712
▁활용해	-9713
▁venture	-9714
SS	-9715
기금	-9716
선의	-9717
시티	-9718
이버	-9719
▁Es	-9720
사항을	-9721
▁띄	-9722
▁샤	-9723
료는	-9724
▁drugs	-9725
▁Independ	-9726
apt	-9727
▁금감	-9728
▁못할	-9729
▁영상을	-9730
lying	-9731
▁발생했다	-9732
▁사로	-9733
▁appears	-9734
▁텐	-9735
▁계기로	-9736
ography	-9737
▁관할	-9738
▁시상	-9739
▁enjoyed	-9740
지능	-9741
▁paint	-9742
▁revers	-9743
▁바이	-9744
▁Dan	-9745
▁재활	-9746
▁바이오	-9747
▁Rule	-9748
▁hospitals	-9749
▁경고	-9750
▁커뮤니티	-9751
▁throw	-9752
hop	-9753
▁진짜	-9754
▁Paju	-9755
▁sweet	-9756
▁lectures	-9757
▁stations	-9758
▁spreading	-9759
▁실시간	-9760
▁자원봉사	-9761
▁밑	-9762
▁tend	-9763
▁applications	-9764
▁Meteorological	-9765
istan	-9766
▁figures	-9767
▁behavior	-9768
▁districts	-9769
▁passengers	-9770
▁Ko	-9771
▁마치	-9772
▁스토	-9773
▁현금	-9774
aped	-9775
▁debut	-9776
▁extended	-9777
▁shipping	-9778
▁suitable	-9779
아야	-9780
▁가맹	-9781
▁조기	-9782
▁태양	-9783
주에	-9784
▁곳은	-9785
DP	-9786
라스	-9787
▁49	-9788
▁kn	-9789
▁수여	-9790
▁이웃	-9791
▁출전	-9792
esus	-9793
▁pled	-9794
▁메시지를	-9795
▁inconvenience	-9796
객이	-9797
val	-9798
▁당장	-9799
▁upper	-9800
▁불가피	-9801
isure	-9802
▁특성	-9803
▁Would	-9804
▁broken	-9805
▁cooperative	-9806
ney	-9807
▁집계	-9808
▁hurt	-9809
▁grades	-9810
▁earthqu	-9811
▁passing	-9812
▁holidays	-9813
▁이민	-9814
▁colors	-9815
이한	-9816
▁유도	-9817
▁표준	-9818
▁anx	-9819
▁Super	-9820
▁newspaper	-9821
▁Afric	-9822
▁가면	-9823
▁플레이	-9824
▁judged	-9825
▁매체	-9826
하려면	-9827
▁tro	-9828
ommod	-9829
▁league	-9830
▁equipped	-9831
세기	-9832
▁복합	-9833
▁king	-9834
▁diplomatic	-9835
pa	-9836
프로그램	-9837
▁benefit	-9838
책임	-9839
▁정치적	-9840
IA	-9841
▁일정을	-9842
▁질병	-9843
▁epis	-9844
▁발송	-9845
▁pra	-9846
▁wild	-9847
▁차단	-9848
▁대학교	-9849
▁이어지고	-9850
▁setting	-9851
▁질문	-9852
▁하늘	-9853
obile	-9854
▁ready	-9855
▁사립	-9856
▁화장품	-9857
▁좁	-9858
져야	-9859
판매	-9860
▁손님	-9861
▁시기	-9862
▁한국은	-9863
▁artist	-9864
ications	-9865
▁thousand	-9866
▁comfortable	-9867
▁이르	-9868
입니까	-9869
▁mouth	-9870
amework	-9871
▁advice	-9872
우가	-9873
▁감염	-9874
▁보육	-9875
▁border	-9876
보건	-9877
▁뮤지	-9878
▁최우	-9879
▁저희는	-9880
▁extent	-9881
▁Analy	-9882
▁British	-9883
▁expression	-9884
기기	-9885
수와	-9886
율은	-9887
▁나눠	-9888
▁Tok	-9889
▁fifth	-9890
▁Pohang	-9891
경이	-9892
▁tim	-9893
▁Mongol	-9894
▁bright	-9895
▁mostly	-9896
▁actions	-9897
▁concentration	-9898
▁계열	-9899
▁설정	-9900
▁Myeong	-9901
▁난민	-9902
▁affiliated	-9903
▁disciplinary	-9904
평등	-9905
하나	-9906
▁손해	-9907
▁strugg	-9908
▁매각	-9909
▁clin	-9910
▁demanded	-9911
▁foster	-9912
▁treated	-9913
▁수능	-9914
▁팀이	-9915
▁Car	-9916
▁contracts	-9917
▁뚜	-9918
▁노후	-9919
▁forum	-9920
▁explanation	-9921
▁jump	-9922
building	-9923
▁pollution	-9924
▁47	-9925
▁Family	-9926
ari	-9927
▁점도	-9928
▁inqu	-9929
uggish	-9930
▁affect	-9931
▁여성이	-9932
▁효율적인	-9933
▁invited	-9934
▁당초	-9935
▁유리	-9936
▁잡고	-9937
시키고	-9938
▁굉장히	-9939
▁혜택을	-9940
▁complexes	-9941
▁컬	-9942
▁세월	-9943
▁lux	-9944
▁Stand	-9945
uations	-9946
재생	-9947
▁확인하고	-9948
▁Pompeo	-9949
연맹	-9950
ledged	-9951
▁니	-9952
▁계좌	-9953
▁대행	-9954
트너	-9955
▁종목	-9956
▁storage	-9957
▁combined	-9958
▁unification	-9959
▁confirmation	-9960
27	-9961
▁동반	-9962
▁일본의	-9963
▁Kwang	-9964
▁shops	-9965
issions	-9966
▁Yun	-9967
▁이끌어	-9968
▁drew	-9969
▁enth	-9970
▁Dynasty	-9971
▁보냈	-9972
▁올린	-9973
▁사로잡	-9974
letes	-9975
▁meals	-9976
▁ecosystem	-9977
▁Jesus	-9978
▁accommod	-9979
▁transferred	-9980
▁철도	-9981
▁부모님	-9982
nesday	-9983
▁실시한	-9984
▁carrying	-9985
▁긴장	-9986
▁수영	-9987
▁치료를	-9988
▁sluggish	-9989
▁꿈을	-9990
▁대폭	-9991
▁바꿔	-9992
▁bicy	-9993
▁indict	-9994
Com	-9995
▁단축	-9996
▁성적	-9997
▁그만큼	-9998
board	-9999
▁Speaker	-10000
▁돌파	-10001
▁BMW	-10002
▁있으나	-10003
▁bra	-10004
▁나선다	-10005
▁delicious	-10006
loom	-10007
▁시장을	-10008
▁mail	-10009
▁injury	-10010
usi	-10011
▁종전	-10012
▁테스트	-10013
▁상위	-10014
▁claims	-10015
▁challenge	-10016
▁피해자	-10017
▁우리에게	-10018
▁arrive	-10019
▁allowing	-10020
▁feelings	-10021
▁wed	-10022
▁기다려	-10023
onent	-10024
▁unve	-10025
▁방법으로	-10026
▁Western	-10027
▁개념	-10028
▁Rev	-10029
▁recognition	-10030
▁195	-10031
▁분위기	-10032
▁벨	-10033
권에	-10034
추진	-10035
arr	-10036
▁anc	-10037
craft	-10038
▁사람들의	-10039
▁Strate	-10040
신고	-10041
▁바닥	-10042
vious	-10043
▁cast	-10044
▁주어	-10045
▁유튜브	-10046
▁가능합니다	-10047
▁감정	-10048
▁폐지	-10049
eter	-10050
▁flowers	-10051
▁offered	-10052
▁짜	-10053
▁눈이	-10054
▁부장	-10055
▁티켓	-10056
▁지원에	-10057
pping	-10058
aded	-10059
▁Cha	-10060
▁그것이	-10061
▁2017,	-10062
▁쓰는	-10063
우리	-10064
▁끌고	-10065
▁방탄	-10066
▁5,000	-10067
▁sample	-10068
▁conflicts	-10069
더니	-10070
▁Xi	-10071
▁급증	-10072
▁채택	-10073
▁기술이	-10074
▁전문가들은	-10075
번에	-10076
▁가동	-10077
▁실태	-10078
▁glass	-10079
▁수시	-10080
▁계약을	-10081
▁무역전쟁	-10082
▁Company	-10083
▁maintained	-10084
▁가슴	-10085
▁복잡	-10086
▁ign	-10087
▁stance	-10088
▁고려해	-10089
▁Shim	-10090
▁Hanwha	-10091
▁suspicions	-10092
▁전부터	-10093
기한	-10094
로구	-10095
바이	-10096
ilk	-10097
▁슈퍼	-10098
▁pattern	-10099
son	-10100
▁있으니	-10101
주도	-10102
위원장	-10103
▁한국이	-10104
▁실내	-10105
ishes	-10106
▁권고	-10107
▁앉아	-10108
면서도	-10109
▁곳으로	-10110
▁이제는	-10111
under	-10112
▁lowest	-10113
▁보인	-10114
▁greet	-10115
▁mixed	-10116
▁north	-10117
▁journal	-10118
북부	-10119
▁들여	-10120
▁자극	-10121
idden	-10122
▁performing	-10123
▁수학	-10124
▁징계	-10125
▁plays	-10126
사용	-10127
eek	-10128
law	-10129
▁지불	-10130
▁취재	-10131
▁해주	-10132
▁활약	-10133
2018	-10134
▁deadline	-10135
▁백악	-10136
▁올림픽	-10137
일과	-10138
▁생명	-10139
▁articles	-10140
▁Bae	-10141
▁hundred	-10142
▁집을	-10143
▁변화를	-10144
▁breat	-10145
▁cooking	-10146
▁contribution	-10147
▁년	-10148
look	-10149
▁Yeou	-10150
21	-10151
비아	-10152
▁결승	-10153
▁반려	-10154
▁수석	-10155
청소년	-10156
▁topic	-10157
▁조작	-10158
력에	-10159
수도	-10160
▁전개	-10161
▁이끄는	-10162
▁2006	-10163
이사	-10164
▁customized	-10165
모델	-10166
▁간단	-10167
▁정당	-10168
St	-10169
기지	-10170
▁41	-10171
▁그녀가	-10172
▁미치는	-10173
stain	-10174
▁fuel	-10175
▁recover	-10176
상과	-10177
▁계기가	-10178
▁챔피언	-10179
useok	-10180
▁enthusi	-10181
▁execution	-10182
▁naturally	-10183
▁우즈	-10184
▁Changwon	-10185
▁hydrogen	-10186
항제	-10187
▁기계	-10188
▁입은	-10189
▁3,000	-10190
▁nearly	-10191
감사	-10192
▁취득	-10193
▁핸드	-10194
▁하나로	-10195
드러	-10196
▁합격	-10197
▁합동	-10198
▁이유를	-10199
iscal	-10200
▁notified	-10201
▁문의	-10202
▁뿐만	-10203
▁추세	-10204
▁차원에서	-10205
▁bonds	-10206
▁tight	-10207
▁요구하는	-10208
uction	-10209
▁isn	-10210
▁학교에	-10211
▁YouTube	-10212
▁diverse	-10213
▁statutes	-10214
▁supports	-10215
ites	-10216
트의	-10217
▁차를	-10218
▁SMEs	-10219
▁shooting	-10220
시까지	-10221
erior	-10222
▁stabil	-10223
▁slightly	-10224
▁꼬	-10225
만한	-10226
▁입을	-10227
▁들었다	-10228
▁identified	-10229
▁contributed	-10230
▁인지	-10231
illa	-10232
▁Aud	-10233
▁초등학교	-10234
▁Engine	-10235
▁호소	-10236
▁통해서	-10237
▁팬들이	-10238
▁뒤에	-10239
가스	-10240
선에	-10241
oph	-10242
▁분석이	-10243
▁예산을	-10244
▁Have	-10245
▁과학기술	-10246
▁phenomenon	-10247
▁proportion	-10248
TE	-10249
▁ang	-10250
ousing	-10251
▁apolog	-10252
▁procedure	-10253
▁시설을	-10254
iciary	-10255
▁Wednesday	-10256
FC	-10257
판을	-10258
▁김동	-10259
▁연주	-10260
시설의	-10261
▁fear	-10262
▁Society	-10263
사랑	-10264
됐으며	-10265
▁Bong	-10266
ellect	-10267
▁예정입니다	-10268
▁Motors	-10269
▁designate	-10270
▁굳	-10271
rat	-10272
▁원인	-10273
▁체포	-10274
▁Command	-10275
러스	-10276
리오	-10277
▁경비	-10278
▁재개	-10279
▁careful	-10280
ips	-10281
▁유입	-10282
▁아니면	-10283
▁통하여	-10284
water	-10285
▁recru	-10286
▁Philippines	-10287
▁더해	-10288
▁복귀	-10289
▁증명	-10290
▁지식	-10291
▁있을지	-10292
▁생각하는	-10293
▁promised	-10294
▁negotiation	-10295
▁강릉	-10296
▁마찬	-10297
▁위원회는	-10298
▁obtained	-10299
vered	-10300
▁공개했다	-10301
▁suicide	-10302
▁canceled	-10303
▁guidelines	-10304
진은	-10305
등학생	-10306
▁사유가	-10307
organ	-10308
▁municipal	-10309
▁concentrated	-10310
▁흉	-10311
▁모색	-10312
▁점은	-10313
▁찾은	-10314
▁직원이	-10315
▁로봇	-10316
▁스타트업	-10317
▁2015,	-10318
배를	-10319
▁박물	-10320
▁않게	-10321
▁pregn	-10322
TC	-10323
▁가치가	-10324
▁진행되는	-10325
▁franch	-10326
▁landsc	-10327
▁Despite	-10328
▁Yeouido	-10329
▁pushing	-10330
▁점차	-10331
▁힘이	-10332
andon	-10333
▁Cong	-10334
▁높아지고	-10335
▁ruled	-10336
uration	-10337
가로	-10338
▁벌써	-10339
zz	-10340
▁남녀	-10341
▁다행	-10342
▁머물	-10343
▁응급	-10344
▁창의	-10345
▁aged	-10346
▁meantime	-10347
▁straight	-10348
rene	-10349
▁모니터	-10350
▁전망된다	-10351
▁penalty	-10352
▁pitcher	-10353
▁signing	-10354
▁깔	-10355
▁토대로	-10356
▁분리	-10357
▁communicate	-10358
▁fer	-10359
리적	-10360
▁신분	-10361
▁했다고	-10362
▁football	-10363
▁formulate	-10364
▁인생	-10365
▁teenagers	-10366
yeol	-10367
▁사업의	-10368
▁사회복지	-10369
▁Buddh	-10370
▁Seocho	-10371
▁efficiently	-10372
wo	-10373
류를	-10374
▁하였다	-10375
icated	-10376
▁Gangneung	-10377
aug	-10378
▁의미를	-10379
▁대리	-10380
▁선진	-10381
apers	-10382
▁위원장의	-10383
▁왜냐	-10384
▁height	-10385
▁athletes	-10386
▁declared	-10387
▁neighbor	-10388
검사	-10389
▁농촌	-10390
▁연휴	-10391
▁시간에	-10392
inces	-10393
▁coal	-10394
▁tests	-10395
▁Sunday	-10396
▁involving	-10397
▁uncertain	-10398
▁충돌	-10399
▁지속적인	-10400
▁successfully	-10401
오염	-10402
▁ministry	-10403
의원	-10404
자료	-10405
▁lab	-10406
▁의원의	-10407
▁주장이	-10408
▁gate	-10409
▁either	-10410
▁sentiment	-10411
∼3	-10412
▁Apple	-10413
▁tourn	-10414
이던	-10415
▁CN	-10416
▁현행	-10417
▁없어서	-10418
Korea	-10419
▁Gwan	-10420
▁shareholders	-10421
▁양국	-10422
였습니다	-10423
ching	-10424
▁Global	-10425
▁Chuseok	-10426
조원	-10427
▁몽골	-10428
되도록	-10429
▁quot	-10430
▁방탄소년	-10431
▁아시안게임	-10432
▁operators	-10433
▁inevitable	-10434
▁댄	-10435
주기	-10436
▁54	-10437
▁기회	-10438
▁exclusive	-10439
메달	-10440
▁배달	-10441
▁초반	-10442
▁파견	-10443
▁형사	-10444
▁closely	-10445
테인	-10446
▁산불	-10447
▁어떠	-10448
gers	-10449
lusion	-10450
▁해제	-10451
이기도	-10452
하시는	-10453
▁53	-10454
▁번역	-10455
▁실행	-10456
▁앞둔	-10457
직을	-10458
▁내리	-10459
체의	-10460
▁관계를	-10461
▁Based	-10462
▁exposed	-10463
▁comprised	-10464
ading	-10465
▁Wo	-10466
▁건의	-10467
▁입법	-10468
▁국민의	-10469
▁unus	-10470
▁돋	-10471
▁연합	-10472
▁정부와	-10473
ilater	-10474
▁losing	-10475
▁흑	-10476
▁숨진	-10477
▁연방	-10478
▁elim	-10479
▁풀이된다	-10480
▁Academy	-10481
줬다	-10482
▁전망이	-10483
ailand	-10484
▁cards	-10485
▁넥	-10486
승을	-10487
주차	-10488
▁관내	-10489
력으로	-10490
스티벌	-10491
etition	-10492
▁buying	-10493
▁100,000	-10494
28	-10495
아리	-10496
rier	-10497
▁녹색	-10498
▁분쟁	-10499
▁수업을	-10500
▁Yongin	-10501
놀이	-10502
▁학생이	-10503
▁후보가	-10504
ivals	-10505
▁Prot	-10506
▁용인	-10507
▁Mun	-10508
만명	-10509
▁경상	-10510
▁동료	-10511
▁저소득	-10512
▁이탈리아	-10513
▁studies	-10514
▁offering	-10515
▁telecommun	-10516
oi	-10517
경쟁	-10518
리트	-10519
월드	-10520
▁나이	-10521
▁Music	-10522
▁weapons	-10523
▁wedding	-10524
▁편리	-10525
▁medal	-10526
▁plane	-10527
▁dropped	-10528
AS	-10529
ijing	-10530
▁보여주는	-10531
▁한인	-10532
▁Gal	-10533
▁국회의원	-10534
▁Other	-10535
▁helps	-10536
▁engaged	-10537
▁subsidy	-10538
▁위로	-10539
apse	-10540
▁구속영	-10541
텔레	-10542
▁서초	-10543
ntil	-10544
▁transp	-10545
laration	-10546
▁statistics	-10547
물질	-10548
pen	-10549
▁obl	-10550
▁승인을	-10551
▁원을	-10552
▁찾을	-10553
▁bath	-10554
▁farms	-10555
▁psych	-10556
▁south	-10557
▁factor	-10558
expected	-10559
▁spending	-10560
하셨	-10561
▁무대	-10562
▁회의를	-10563
▁awarded	-10564
수에	-10565
▁수십	-10566
▁Red	-10567
▁Ansan	-10568
▁flower	-10569
▁voices	-10570
▁산림	-10571
▁생겨	-10572
▁이른바	-10573
▁DMZ	-10574
▁여의도	-10575
▁ease	-10576
▁booth	-10577
▁grown	-10578
▁handed	-10579
▁stability	-10580
민의	-10581
상태	-10582
mas	-10583
▁상관	-10584
▁업종	-10585
▁begun	-10586
▁tariffs	-10587
▁샌	-10588
축구	-10589
▁청소	-10590
하였습니다	-10591
▁competitive	-10592
SC	-10593
▁도심	-10594
▁beer	-10595
▁rock	-10596
▁세계적인	-10597
씨와	-10598
measures	-10599
▁Workers	-10600
▁한화	-10601
iece	-10602
▁가능할	-10603
▁이용하는	-10604
iration	-10605
▁gained	-10606
▁상임	-10607
▁향한	-10608
▁올랐다	-10609
▁Community	-10610
▁놀라	-10611
▁승리	-10612
▁cas	-10613
위원회를	-10614
aza	-10615
▁서류를	-10616
▁안전한	-10617
분간	-10618
▁기독교	-10619
▁달하는	-10620
▁절차를	-10621
▁reply	-10622
▁chart	-10623
▁losses	-10624
▁Yongsan	-10625
▁부담을	-10626
▁있었지만	-10627
▁Thailand	-10628
전략	-10629
한데	-10630
▁몰려	-10631
▁안팎	-10632
▁문제에	-10633
▁분야에서	-10634
▁novel	-10635
▁managing	-10636
▁Bio	-10637
▁소식을	-10638
▁수준의	-10639
호서식에	-10640
▁관련하여	-10641
▁hiring	-10642
천만	-10643
▁예능	-10644
▁외에도	-10645
▁Tokyo	-10646
▁covered	-10647
▁김정	-10648
▁유기	-10649
▁희생	-10650
rants	-10651
▁imposed	-10652
▁religious	-10653
▁containing	-10654
해질	-10655
▁밖의	-10656
▁lay	-10657
▁보이지	-10658
▁leisure	-10659
당은	-10660
▁옷을	-10661
▁경우에	-10662
▁작품을	-10663
▁enterprise	-10664
▁monitoring	-10665
gg	-10666
▁유해	-10667
2019	-10668
▁mill	-10669
▁가능성도	-10670
▁질환	-10671
▁헌법	-10672
즈를	-10673
▁받게	-10674
▁이것이	-10675
▁prime	-10676
▁evaluated	-10677
▁(6	-10678
▁Mer	-10679
▁defend	-10680
▁낼	-10681
▁융자	-10682
▁Sol	-10683
▁불리는	-10684
▁활용한	-10685
▁army	-10686
▁bills	-10687
▁initial	-10688
▁하되	-10689
▁당신과	-10690
▁Arab	-10691
▁resolved	-10692
폐기	-10693
▁6,	-10694
▁노사	-10695
▁다수	-10696
▁한정	-10697
▁Love	-10698
생산	-10699
피해	-10700
").	-10701
▁맞추	-10702
▁Sal	-10703
▁떨어져	-10704
▁목표로	-10705
▁시스템을	-10706
▁blind	-10707
▁Beijing	-10708
▁때도	-10709
▁유력	-10710
▁brands	-10711
▁version	-10712
▁그에	-10713
▁잡아	-10714
▁첨단	-10715
리스트	-10716
▁결정을	-10717
▁남성이	-10718
▁묵	-10719
력은	-10720
용차	-10721
▁과태	-10722
▁세워	-10723
▁소화	-10724
▁토지	-10725
에너지	-10726
▁700	-10727
▁내용의	-10728
▁Amid	-10729
utical	-10730
▁convention	-10731
안보	-10732
▁aid	-10733
▁따뜻한	-10734
▁연극	-10735
▁교수가	-10736
▁swim	-10737
쪽에	-10738
▁생존	-10739
▁위기	-10740
ulum	-10741
▁찾고	-10742
▁무료로	-10743
▁환경을	-10744
▁Thanks	-10745
▁drivers	-10746
ellectual	-10747
조를	-10748
how	-10749
izz	-10750
티스트	-10751
▁둘러싼	-10752
▁sharply	-10753
▁Vietnamese	-10754
▁그건	-10755
▁대거	-10756
코리아	-10757
▁70%	-10758
▁800	-10759
celer	-10760
▁2005	-10761
▁Marine	-10762
▁dishes	-10763
복을	-10764
포구	-10765
▁신청을	-10766
▁suffer	-10767
▁Stat	-10768
▁burn	-10769
▁easier	-10770
▁교사	-10771
▁측정	-10772
건으로	-10773
기관에	-10774
역에	-10775
▁거짓	-10776
▁안보	-10777
되어야	-10778
▁비용이	-10779
aseong	-10780
▁cancell	-10781
▁receives	-10782
피스	-10783
▁80%	-10784
▁분위기를	-10785
▁pharm	-10786
▁떠오	-10787
▁통상	-10788
▁회장은	-10789
▁blocked	-10790
▁cleaning	-10791
물에	-10792
▁날짜	-10793
▁마약	-10794
▁이용한	-10795
▁Lead	-10796
▁hike	-10797
▁ment	-10798
change	-10799
▁inaug	-10800
▁degree	-10801
▁expend	-10802
▁mutual	-10803
fit	-10804
▁저도	-10805
하면서도	-10806
▁생각해요	-10807
▁powerful	-10808
▁carefully	-10809
▁수소	-10810
▁강하게	-10811
▁voting	-10812
▁Gyeongsangnam	-10813
dae	-10814
▁acts	-10815
▁지역사회	-10816
▁desire	-10817
▁actress	-10818
▁investments	-10819
사일	-10820
ham	-10821
▁이중	-10822
물로	-10823
시와	-10824
▁유치원	-10825
istance	-10826
망을	-10827
▁sustain	-10828
터리	-10829
▁측이	-10830
▁행복한	-10831
eared	-10832
othing	-10833
▁Unification	-10834
uce	-10835
▁identity	-10836
웨어	-10837
▁기존의	-10838
▁설치된	-10839
ns	-10840
류가	-10841
eck	-10842
▁별로	-10843
▁Army	-10844
▁gaining	-10845
▁payments	-10846
▁villages	-10847
▁continuing	-10848
PI	-10849
군은	-10850
▁결과에	-10851
▁발전을	-10852
▁Temple	-10853
▁fiscal	-10854
Wh	-10855
▁출근	-10856
▁비율이	-10857
▁지역은	-10858
▁영향으로	-10859
1)	-10860
▁법정	-10861
▁없지만	-10862
▁simp	-10863
▁긍정적인	-10864
elling	-10865
▁familiar	-10866
▁smartphones	-10867
▁satisfaction	-10868
란히	-10869
▁과도	-10870
▁spr	-10871
▁죄송합니다	-10872
▁동남	-10873
▁동원	-10874
▁탁	-10875
금리	-10876
▁그게	-10877
▁tow	-10878
▁unp	-10879
riculum	-10880
▁collaps	-10881
▁advertising	-10882
국에	-10883
▁경우는	-10884
▁이유다	-10885
▁cloud	-10886
▁colon	-10887
▁consc	-10888
▁pretty	-10889
▁demands	-10890
▁fundament	-10891
▁differences	-10892
▁investigated	-10893
'.	-10894
▁방법이	-10895
▁wake	-10896
▁aging	-10897
▁숲	-10898
hington	-10899
23	-10900
▁산하	-10901
▁소식	-10902
▁포상	-10903
set	-10904
▁넘겨	-10905
▁곳에서	-10906
▁Actor	-10907
hibition	-10908
면으로	-10909
lets	-10910
▁180	-10911
reprene	-10912
▁retail	-10913
▁preferent	-10914
영이	-10915
wei	-10916
▁Ur	-10917
▁나아	-10918
▁오염	-10919
▁이같이	-10920
▁트위	-10921
umed	-10922
▁Big	-10923
itter	-10924
▁sick	-10925
▁images	-10926
조선	-10927
using	-10928
OU	-10929
▁물건을	-10930
employment	-10931
IP	-10932
ox	-10933
▁Cap	-10934
▁Nak	-10935
▁인공지능	-10936
isition	-10937
▁stadium	-10938
기록	-10939
▁쓰고	-10940
▁Zone	-10941
▁empt	-10942
▁rejected	-10943
보니	-10944
▁결합	-10945
▁당일	-10946
▁도서	-10947
▁지원이	-10948
▁Town	-10949
▁asset	-10950
▁셀	-10951
▁포항	-10952
사업에	-10953
시간이	-10954
▁refers	-10955
▁abandon	-10956
▁Innovation	-10957
호텔	-10958
▁내린	-10959
▁적지	-10960
▁disposal	-10961
▁supervision	-10962
진의	-10963
▁가해	-10964
▁학생들의	-10965
▁charged	-10966
▁responded	-10967
▁환영	-10968
▁뛰어난	-10969
▁이뤄질	-10970
▁downtown	-10971
▁Declaration	-10972
▁introducing	-10973
다시	-10974
무역	-10975
▁invested	-10976
ma	-10977
▁박근혜	-10978
▁kick	-10979
▁Until	-10980
▁Citizens	-10981
▁56	-10982
▁마감	-10983
받았다	-10984
호서식의	-10985
▁realized	-10986
▁dispatched	-10987
Kim	-10988
eup	-10989
하시면	-10990
▁exceeded	-10991
▁pleasant	-10992
년의	-10993
▁넘게	-10994
▁바에	-10995
▁파티	-10996
해주는	-10997
▁여성의	-10998
▁형태로	-10999
▁bigger	-11000
▁Agriculture	-11001
길이	-11002
▁식사	-11003
교육청	-11004
▁다문화	-11005
▁증가한	-11006
▁facing	-11007
▁펜	-11008
▁구현	-11009
▁nut	-11010
▁이어졌다	-11011
▁murder	-11012
▁unless	-11013
▁funeral	-11014
▁횡	-11015
혁명	-11016
▁돌려	-11017
▁풍부한	-11018
▁quantity	-11019
▁작동	-11020
▁편성	-11021
eces	-11022
▁Cre	-11023
odies	-11024
자산	-11025
▁신체	-11026
▁국회에서	-11027
▁Board	-11028
▁인재	-11029
주년을	-11030
hand	-11031
인가	-11032
▁75	-11033
▁주주	-11034
encing	-11035
▁herit	-11036
▁알려주세요	-11037
▁securing	-11038
▁Washington	-11039
▁런	-11040
300	-11041
▁조언	-11042
enary	-11043
▁stick	-11044
▁revolution	-11045
ipe	-11046
▁tu	-11047
▁자리에	-11048
▁spaces	-11049
이용	-11050
▁개봉	-11051
chon	-11052
▁제품의	-11053
hyeon	-11054
▁Free	-11055
aceutical	-11056
▁capabilities	-11057
마저	-11058
anam	-11059
arian	-11060
▁perman	-11061
▁College	-11062
▁Cheongju	-11063
▁Especially	-11064
▁공기	-11065
▁Two	-11066
▁부분을	-11067
etary	-11068
▁공동으로	-11069
▁turning	-11070
Go	-11071
▁tea	-11072
▁provinces	-11073
▁continuous	-11074
▁아는	-11075
▁입증	-11076
▁투자를	-11077
▁reserv	-11078
▁purchasing	-11079
실로	-11080
▁Dr	-11081
▁돈이	-11082
▁정체	-11083
▁나중에	-11084
▁마음에	-11085
▁dece	-11086
▁mistake	-11087
▁singers	-11088
먼트	-11089
▁대변인은	-11090
▁visits	-11091
▁dialogue	-11092
▁Attention	-11093
▁deliberate	-11094
봐야	-11095
전은	-11096
zbe	-11097
▁고급	-11098
stra	-11099
▁Yeo	-11100
▁fit	-11101
▁마치고	-11102
▁지역을	-11103
▁Real	-11104
▁필요합니다	-11105
▁extension	-11106
기관이	-11107
▁imported	-11108
▁줘	-11109
동에	-11110
르신	-11111
▁매장	-11112
oles	-11113
▁가족이	-11114
▁Gold	-11115
▁explos	-11116
▁singing	-11117
▁Hwaseong	-11118
여서	-11119
▁이름이	-11120
▁publicly	-11121
▁Engineering	-11122
▁prosecutors	-11123
소방	-11124
▁Ang	-11125
▁것인지	-11126
▁이벤트	-11127
▁detected	-11128
▁whenever	-11129
리게	-11130
이즈	-11131
▁맛있	-11132
▁추억	-11133
▁Care	-11134
▁trends	-11135
▁centered	-11136
▁originally	-11137
▁수리	-11138
▁나아가	-11139
▁tons	-11140
▁collapse	-11141
mo	-11142
▁훌륭	-11143
mail	-11144
▁질문에	-11145
▁advis	-11146
▁vision	-11147
▁surface	-11148
▁architect	-11149
hw	-11150
▁운영할	-11151
▁문화예술	-11152
▁troops	-11153
개로	-11154
었다는	-11155
▁Vol	-11156
▁목소리를	-11157
▁현재까지	-11158
iented	-11159
▁프로그램이	-11160
▁Christmas	-11161
량은	-11162
▁방북	-11163
▁선박	-11164
▁탑승	-11165
▁업체가	-11166
▁제출한	-11167
▁imag	-11168
▁examine	-11169
▁entrustment	-11170
▁실종	-11171
abin	-11172
asan	-11173
▁40%	-11174
▁아직도	-11175
▁wasn	-11176
▁일자리를	-11177
▁amendment	-11178
세로	-11179
▁주력	-11180
▁분야의	-11181
anging	-11182
win	-11183
▁소녀	-11184
닙니다	-11185
▁chat	-11186
▁gone	-11187
▁talked	-11188
▁semester	-11189
▁requirements	-11190
▁“(	-11191
▁드러나	-11192
센터에서	-11193
▁진행됐다	-11194
atization	-11195
▁명절	-11196
▁회사의	-11197
▁deplo	-11198
zbek	-11199
essed	-11200
style	-11201
▁대하여는	-11202
▁leads	-11203
▁merchants	-11204
란드	-11205
▁Hua	-11206
▁KOS	-11207
▁영어를	-11208
▁race	-11209
▁antic	-11210
회장	-11211
▁편안	-11212
졌다는	-11213
▁공무원이	-11214
▁recognize	-11215
▁scholarship	-11216
주년	-11217
▁마친	-11218
▁Mok	-11219
▁whom	-11220
▁너희	-11221
▁물을	-11222
▁daycare	-11223
▁requests	-11224
달라고	-11225
ades	-11226
▁Job	-11227
▁filming	-11228
시즌	-11229
▁착용	-11230
▁추진할	-11231
▁researchers	-11232
▁섭	-11233
▁호응	-11234
해지고	-11235
▁Gor	-11236
▁Rel	-11237
▁combination	-11238
사령	-11239
이의	-11240
▁고소	-11241
시켰다	-11242
▁검찰에	-11243
reams	-11244
▁Street	-11245
ara	-11246
▁달려	-11247
▁ped	-11248
▁돌아가	-11249
▁earthquake	-11250
▁Independence	-11251
름이	-11252
안의	-11253
음악	-11254
gil	-11255
▁법적	-11256
▁안산	-11257
▁테이	-11258
▁eth	-11259
▁자리에서	-11260
▁convey	-11261
노총	-11262
▁memorial	-11263
▁칠	-11264
▁많고	-11265
▁통제	-11266
▁폐쇄	-11267
▁pow	-11268
▁추진하고	-11269
▁Gangseo	-11270
▁multiple	-11271
▁Gyeongbuk	-11272
▁reasonable	-11273
▁날이	-11274
▁스케	-11275
holder	-11276
▁낭	-11277
서와	-11278
▁수급	-11279
ager	-11280
▁개발한	-11281
▁page	-11282
▁greater	-11283
▁returning	-11284
소와	-11285
▁부적	-11286
▁선사	-11287
▁출동	-11288
▁흘러	-11289
▁덕분에	-11290
▁소식이	-11291
▁1990	-11292
▁Show	-11293
▁decor	-11294
▁tournament	-11295
구나	-11296
기능	-11297
ensus	-11298
▁rally	-11299
▁helping	-11300
조치	-11301
▁63	-11302
▁혼란	-11303
▁않았습니다	-11304
▁winner	-11305
dr	-11306
▁낳	-11307
▁배제	-11308
▁정도의	-11309
eless	-11310
▁창원	-11311
▁190	-11312
▁bags	-11313
▁uncom	-11314
▁Matters	-11315
▁Strategy	-11316
창업	-11317
rank	-11318
▁Past	-11319
iction	-11320
폭력	-11321
▁언어	-11322
단으로	-11323
▁peak	-11324
▁agriculture	-11325
9)	-11326
▁용산	-11327
▁tool	-11328
▁simply	-11329
타운	-11330
eds	-11331
▁dangerous	-11332
▁착수	-11333
▁Map	-11334
▁fest	-11335
▁않았지만	-11336
▁starts	-11337
▁legislation	-11338
▁Mad	-11339
▁linked	-11340
▁Malaysia	-11341
7)	-11342
▁kim	-11343
▁raw	-11344
▁fort	-11345
▁분위기가	-11346
▁exempt	-11347
▁friendly	-11348
하니	-11349
▁무너	-11350
▁하이	-11351
▁cru	-11352
▁본격적으로	-11353
▁strict	-11354
▁spokesman	-11355
22	-11356
벤처	-11357
순환	-11358
bon	-11359
▁의지를	-11360
렸습니다	-11361
▁patent	-11362
▁replaced	-11363
니어	-11364
cel	-11365
▁통지	-11366
▁기간이	-11367
▁기대를	-11368
▁방문한	-11369
▁선정된	-11370
▁facts	-11371
▁happiness	-11372
인천	-11373
하라	-11374
▁떠올	-11375
▁피의	-11376
▁관계가	-11377
▁회사가	-11378
싱턴	-11379
체계	-11380
하실	-11381
▁59	-11382
억원의	-11383
▁mand	-11384
▁wins	-11385
▁FC	-11386
▁상생	-11387
▁대화를	-11388
▁knew	-11389
▁situations	-11390
▁57	-11391
▁분류	-11392
hour	-11393
▁wal	-11394
▁아티스트	-11395
▁Bridge	-11396
▁Pension	-11397
▁밴	-11398
▁다음달	-11399
about	-11400
▁category	-11401
▁단일	-11402
▁선출	-11403
사이트	-11404
▁상태다	-11405
▁어디서	-11406
▁전망했다	-11407
▁거기	-11408
된다는	-11409
ength	-11410
right	-11411
▁Uzbek	-11412
contract	-11413
▁aircraft	-11414
▁제주도	-11415
outheast	-11416
▁positions	-11417
▁litigation	-11418
바로	-11419
▁일대	-11420
▁조절	-11421
▁호흡	-11422
mitting	-11423
▁Design	-11424
리어	-11425
▁58	-11426
▁차가	-11427
▁bow	-11428
▁kit	-11429
▁citizen	-11430
▁plenary	-11431
NG	-11432
해왔다	-11433
▁따라서	-11434
▁shoes	-11435
▁맡은	-11436
▁추석	-11437
mat	-11438
udi	-11439
▁미만	-11440
▁비서	-11441
▁한글	-11442
집니다	-11443
jang	-11444
uses	-11445
▁adults	-11446
▁Jeollanam	-11447
▁Industries	-11448
▁7,	-11449
▁이승	-11450
▁트위터	-11451
cheol	-11452
▁beat	-11453
▁pilot	-11454
재난	-11455
▁예수	-11456
▁화성	-11457
▁joy	-11458
▁Huawei	-11459
▁freely	-11460
▁listening	-11461
▁passenger	-11462
▁무게	-11463
cles	-11464
▁incent	-11465
▁organize	-11466
▁쾌	-11467
뷰티	-11468
조건	-11469
▁도모	-11470
▁요금	-11471
▁활용할	-11472
▁평가했다	-11473
▁Medium	-11474
▁discrimination	-11475
▁접촉	-11476
▁포착	-11477
▁nood	-11478
▁charm	-11479
▁효율적으로	-11480
▁marine	-11481
▁Housing	-11482
RA	-11483
▁대사	-11484
▁것이란	-11485
orney	-11486
▁cafe	-11487
▁Urban	-11488
▁worse	-11489
▁revitalize	-11490
여행	-11491
▁영양	-11492
ayment	-11493
▁강서	-11494
▁강의	-11495
▁소집	-11496
▁준용	-11497
▁퇴직	-11498
▁competent	-11499
▁51	-11500
▁발휘	-11501
▁스트레	-11502
sp	-11503
kyu	-11504
▁고정	-11505
▁Senior	-11506
got	-11507
▁아빠	-11508
기업의	-11509
년으로	-11510
▁Only	-11511
▁keen	-11512
▁disappeared	-11513
▁defect	-11514
조가	-11515
▁개성	-11516
▁struct	-11517
▁widely	-11518
▁approach	-11519
▁veter	-11520
▁forget	-11521
▁relief	-11522
▁관해	-11523
▁기사	-11524
▁대선	-11525
pects	-11526
▁1980	-11527
▁railway	-11528
▁crackdown	-11529
osen	-11530
▁별도의	-11531
▁운동을	-11532
▁팬들의	-11533
▁거주하는	-11534
▁왜냐하면	-11535
▁partner	-11536
▁applicant	-11537
▁dismissed	-11538
▁뭔	-11539
▁진료	-11540
▁gathering	-11541
▁curriculum	-11542
다니	-11543
층이	-11544
교육을	-11545
▁비교적	-11546
▁최소화	-11547
▁river	-11548
▁steel	-11549
▁urged	-11550
ception	-11551
▁allowances	-11552
가락	-11553
황이	-11554
▁아이가	-11555
▁heav	-11556
advant	-11557
oriented	-11558
나마	-11559
gon	-11560
▁말하는	-11561
ursday	-11562
▁garden	-11563
▁Experts	-11564
▁handling	-11565
26	-11566
OC	-11567
부터는	-11568
▁행사에	-11569
▁신한	-11570
▁유니	-11571
▁대책을	-11572
▁콘서트	-11573
▁진행하고	-11574
▁lease	-11575
▁sand	-11576
▁behalf	-11577
화점	-11578
▁담아	-11579
▁annually	-11580
령을	-11581
어버	-11582
▁고마	-11583
▁탓에	-11584
▁위원의	-11585
▁Store	-11586
▁보낼	-11587
▁ranking	-11588
▁disappear	-11589
axy	-11590
▁8,	-11591
▁기도	-11592
▁실시할	-11593
asury	-11594
▁dogs	-11595
▁비즈니스	-11596
▁however	-11597
▁package	-11598
▁Administrative	-11599
▁자가	-11600
sook	-11601
▁fill	-11602
▁기반으로	-11603
▁comply	-11604
▁AS	-11605
▁가능해	-11606
▁방향으로	-11607
▁memories	-11608
북한	-11609
▁노선	-11610
▁John	-11611
▁mood	-11612
리티	-11613
행위	-11614
▁시정	-11615
▁감독의	-11616
▁거에요	-11617
▁기준을	-11618
▁며	-11619
철도	-11620
▁보일	-11621
enses	-11622
3)	-11623
▁유발	-11624
▁곳이다	-11625
▁제조업	-11626
▁사람에게	-11627
▁describ	-11628
▁politic	-11629
보조	-11630
▁출장	-11631
라운드	-11632
▁문화재	-11633
▁진행할	-11634
▁empty	-11635
▁딱	-11636
ondo	-11637
▁Before	-11638
▁Express	-11639
제와	-11640
yal	-11641
▁73	-11642
▁변동	-11643
▁살해	-11644
▁저장	-11645
회의를	-11646
ocol	-11647
▁했다는	-11648
▁현대차	-11649
▁feed	-11650
▁Jongno	-11651
▁recording	-11652
45	-11653
▁공간을	-11654
▁진행하는	-11655
▁Operation	-11656
?"	-11657
약품	-11658
오고	-11659
일의	-11660
▁세대	-11661
▁얻고	-11662
▁탄생	-11663
iter	-11664
▁deems	-11665
▁thoughts	-11666
▁succeeded	-11667
인권	-11668
▁잠재	-11669
수수색	-11670
▁논의가	-11671
▁경기에서	-11672
▁chose	-11673
committee	-11674
른다	-11675
수요	-11676
시대	-11677
▁건강한	-11678
스플레이	-11679
▁corner	-11680
▁remove	-11681
민주	-11682
wise	-11683
▁없도록	-11684
▁smile	-11685
▁동네	-11686
▁맞이	-11687
▁장르	-11688
스포츠	-11689
ucks	-11690
▁상당히	-11691
▁trouble	-11692
▁엑	-11693
▁프리미엄	-11694
해양	-11695
poses	-11696
▁code	-11697
▁ordinance	-11698
▁동작	-11699
▁들이	-11700
▁찬성	-11701
▁Good	-11702
▁vess	-11703
기본	-11704
▁현상이	-11705
acific	-11706
▁brain	-11707
▁깜	-11708
겁게	-11709
▁시급	-11710
센터가	-11711
터테인	-11712
▁적절한	-11713
▁Each	-11714
▁respondents	-11715
력의	-11716
호선	-11717
ino	-11718
▁않아도	-11719
▁grew	-11720
▁prompt	-11721
공연	-11722
미술	-11723
▁깨끗	-11724
▁여부	-11725
anged	-11726
▁views	-11727
td	-11728
층의	-11729
올림픽	-11730
▁mel	-11731
▁consent	-11732
▁automatically	-11733
렀다	-11734
enn	-11735
았지만	-11736
▁map	-11737
▁된다는	-11738
▁수수료	-11739
▁Star	-11740
▁cart	-11741
embers	-11742
▁commit	-11743
▁disadvant	-11744
▁68	-11745
시장이	-11746
▁반응을	-11747
진과	-11748
▁Four	-11749
▁차지하는	-11750
▁unusual	-11751
표가	-11752
확실	-11753
▁노래를	-11754
ieces	-11755
▁motor	-11756
▁Earlier	-11757
우러	-11758
지어	-11759
▁Nex	-11760
▁buyers	-11761
▁residence	-11762
▁frequent	-11763
▁upcoming	-11764
▁replacement	-11765
설을	-11766
▁ID	-11767
▁af	-11768
▁자살	-11769
▁의사를	-11770
▁진행될	-11771
▁fruit	-11772
▁leaves	-11773
▁juven	-11774
▁consists	-11775
▁internet	-11776
,'	-11777
lin	-11778
▁박람	-11779
▁갈수록	-11780
▁seeking	-11781
▁흥미	-11782
chen	-11783
▁seal	-11784
▁assembly	-11785
▁discovered	-11786
▁composition	-11787
▁축소	-11788
▁Ilbo	-11789
▁kimchi	-11790
▁Regional	-11791
▁securities	-11792
▁기각	-11793
▁저지	-11794
▁제약	-11795
▁짧은	-11796
▁defic	-11797
▁Military	-11798
▁났	-11799
지법	-11800
▁넣어	-11801
▁신고를	-11802
▁잇따라	-11803
▁압수수색	-11804
▁dress	-11805
▁professors	-11806
호는	-11807
guk	-11808
▁건조	-11809
▁기분이	-11810
▁파트너	-11811
▁아닙니다	-11812
▁steps	-11813
▁빗	-11814
▁하던	-11815
기업이	-11816
▁이재명	-11817
▁boat	-11818
▁Saudi	-11819
▁usage	-11820
▁towards	-11821
▁공개한	-11822
▁자영업	-11823
▁Spain	-11824
▁Shinhan	-11825
▁traveling	-11826
▁communities	-11827
▁털	-11828
단과	-11829
라서	-11830
물은	-11831
▁CS	-11832
▁스크	-11833
▁정확히	-11834
▁awards	-11835
35	-11836
idity	-11837
▁pray	-11838
▁ride	-11839
▁지역주민	-11840
▁yourself	-11841
▁transform	-11842
동구	-11843
ket	-11844
▁대단	-11845
겠습니까	-11846
▁faster	-11847
▁숫	-11848
▁쟁	-11849
예방	-11850
▁하노	-11851
▁Bre	-11852
▁일하는	-11853
▁Nong	-11854
▁Will	-11855
▁controll	-11856
▁purposes	-11857
익을	-11858
치게	-11859
▁64	-11860
▁변호사	-11861
mentia	-11862
드로	-11863
포를	-11864
▁도쿄	-11865
▁올리	-11866
▁Smart	-11867
폰을	-11868
pyo	-11869
▁130	-11870
▁이상을	-11871
▁feas	-11872
▁공동주택	-11873
▁dedicated	-11874
▁돼요	-11875
▁예를	-11876
▁준공	-11877
itor	-11878
ocated	-11879
▁vital	-11880
▁yellow	-11881
▁deterior	-11882
힌다	-11883
▁점심	-11884
lude	-11885
▁컨설팅	-11886
▁이어지는	-11887
▁부대	-11888
▁선교	-11889
▁일시	-11890
▁대상이	-11891
▁충분한	-11892
▁조사됐다	-11893
▁구체적으로	-11894
▁Particip	-11895
▁relation	-11896
국을	-11897
부문	-11898
층에	-11899
▁음악을	-11900
▁excav	-11901
▁feels	-11902
▁삼성바이오	-11903
▁수사에	-11904
▁Hanoi	-11905
▁Water	-11906
MA	-11907
·4	-11908
Gun	-11909
▁sac	-11910
▁이전에	-11911
eeper	-11912
▁ge	-11913
▁옆에	-11914
▁재배	-11915
▁올렸다	-11916
▁relax	-11917
obby	-11918
▁임기는	-11919
▁Starting	-11920
▁specified	-11921
전의	-11922
▁데다	-11923
▁Those	-11924
▁impress	-11925
린이	-11926
용품	-11927
전으로	-11928
▁친구들과	-11929
▁Northern	-11930
▁리그	-11931
▁이때	-11932
억달러	-11933
▁rom	-11934
▁어려울	-11935
▁서비스가	-11936
▁증가하고	-11937
▁audiences	-11938
소송	-11939
▁교부	-11940
▁생겼	-11941
▁jun	-11942
▁케이팝	-11943
▁conv	-11944
ivation	-11945
트랙	-11946
▁자아	-11947
▁조례에	-11948
▁dish	-11949
▁scient	-11950
▁근본	-11951
▁선도	-11952
억원이	-11953
▁mal	-11954
드릴게요	-11955
▁운영하고	-11956
▁썼	-11957
▁1.	-11958
▁걸려	-11959
▁받으	-11960
▁정해	-11961
▁풀어	-11962
oral	-11963
with	-11964
▁Koo	-11965
▁web	-11966
▁diet	-11967
▁nerv	-11968
▁institutes	-11969
▁acquisition	-11970
고용	-11971
▁Ok	-11972
키스탄	-11973
▁egg	-11974
▁워싱턴	-11975
▁교육감은	-11976
월에는	-11977
▁사우디	-11978
▁unexpected	-11979
▁underground	-11980
▁Gyeongsangbuk	-11981
▁과연	-11982
▁나설	-11983
▁베이징	-11984
▁주민의	-11985
▁managers	-11986
▁disappoint	-11987
▁전담	-11988
▁했고	-11989
rated	-11990
▁수준으로	-11991
daemun	-11992
▁staying	-11993
▁consensus	-11994
▁Gi	-11995
▁눈을	-11996
▁늦게	-11997
▁가졌다	-11998
▁bere	-11999
▁bound	-12000
▁weaken	-12001
▁사람들	-12002
▁royal	-12003
▁재미있	-12004
▁writer	-12005
▁Planning	-12006
▁regulatory	-12007
로드	-12008
비의	-12009
항을	-12010
시간을	-12011
▁owned	-12012
▁diagnosis	-12013
▁내세	-12014
▁일각	-12015
▁추구	-12016
what	-12017
▁않지만	-12018
▁차지했다	-12019
▁있었고	-12020
▁flexible	-12021
▁inspections	-12022
UV	-12023
LED	-12024
▁되었	-12025
▁gun	-12026
▁모르는	-12027
▁Intelligence	-12028
▁66	-12029
▁매입	-12030
▁물건	-12031
▁인용	-12032
디자인	-12033
geun	-12034
▁Herit	-12035
▁donated	-12036
값이	-12037
▁야구	-12038
▁에이	-12039
▁제공하고	-12040
▁행사에는	-12041
▁votes	-12042
▁척	-12043
▁발의	-12044
▁부당	-12045
사업의	-12046
deok	-12047
▁노원구	-12048
▁zones	-12049
▁Singer	-12050
▁disclosed	-12051
▁demonstration	-12052
▁Us	-12053
▁Home	-12054
▁비판했다	-12055
▁acceler	-12056
▁verification	-12057
았어요	-12058
pond	-12059
▁Kum	-12060
▁사랑하는	-12061
▁앞으로도	-12062
▁이야기가	-12063
▁paintings	-12064
▁재판에	-12065
▁strengthened	-12066
▁spl	-12067
▁noise	-12068
▁episode	-12069
쇼핑	-12070
▁POS	-12071
▁Sur	-12072
▁지사는	-12073
▁Turkey	-12074
▁supplement	-12075
Al	-12076
조례	-12077
▁Bi	-12078
▁스테	-12079
ping	-12080
▁가격을	-12081
▁때부터	-12082
▁사이트	-12083
▁Look	-12084
▁대부분이	-12085
▁사람들에게	-12086
fortable	-12087
Do	-12088
PS	-12089
클럽	-12090
▁강경	-12091
▁지체	-12092
echeon	-12093
▁upload	-12094
▁unveiled	-12095
▁독특	-12096
▁명시	-12097
▁시는	-12098
▁관리를	-12099
▁제공할	-12100
▁recy	-12101
▁favorable	-12102
사례	-12103
▁소셜	-12104
졌다고	-12105
▁bereaved	-12106
▁Residents	-12107
▁막기	-12108
▁투명	-12109
릅니다	-12110
▁Inc	-12111
▁shr	-12112
▁thus	-12113
▁정상회담을	-12114
reement	-12115
▁adopted	-12116
」(	-12117
▁Mu	-12118
▁북측	-12119
▁설득	-12120
▁씨는	-12121
▁불확실	-12122
▁기록한	-12123
▁속도를	-12124
▁지방선거	-12125
적의	-12126
팀은	-12127
▁감면	-12128
▁즐거	-12129
▁추락	-12130
▁노력이	-12131
▁어우러	-12132
▁clubs	-12133
▁stake	-12134
듯이	-12135
어져	-12136
▁부실	-12137
▁기다리고	-12138
▁지원한다	-12139
▁경기도지사가	-12140
hak	-12141
making	-12142
▁collecting	-12143
▁내는	-12144
▁적정	-12145
▁채권	-12146
▁Valley	-12147
▁founded	-12148
▁관람객	-12149
▁vacc	-12150
▁agent	-12151
▁habit	-12152
▁Elementary	-12153
▁personality	-12154
▁판단했다	-12155
▁illegally	-12156
자들	-12157
▁김경	-12158
▁대표하는	-12159
arious	-12160
결을	-12161
된다고	-12162
▁Kia	-12163
▁bio	-12164
▁sen	-12165
▁분들이	-12166
▁bridge	-12167
uls	-12168
▁enact	-12169
▁stood	-12170
▁붕	-12171
aes	-12172
▁KE	-12173
위원은	-12174
하라고	-12175
case	-12176
▁smell	-12177
▁luxury	-12178
▁Heritage	-12179
▁exemption	-12180
정과	-12181
▁공고	-12182
▁squ	-12183
▁경우도	-12184
▁휴대전	-12185
▁promise	-12186
▁channels	-12187
▁침해	-12188
▁표창	-12189
▁현장에	-12190
▁freed	-12191
▁subord	-12192
▁attendance	-12193
가격	-12194
▁사고로	-12195
▁prim	-12196
▁자유롭게	-12197
▁직원들이	-12198
▁withdrawal	-12199
▁핀	-12200
▁충전	-12201
▁트렌	-12202
▁매출이	-12203
riers	-12204
verning	-12205
▁expertise	-12206
▁logistics	-12207
▁Cooperation	-12208
▁상상	-12209
▁요청할	-12210
▁solo	-12211
▁numbers	-12212
거든	-12213
urt	-12214
▁독서	-12215
▁허위	-12216
cean	-12217
▁갈등이	-12218
회의에서	-12219
▁roll	-12220
uesday	-12221
▁entreprene	-12222
BA	-12223
차로	-12224
▁가끔	-12225
▁뚜렷	-12226
▁목숨	-12227
▁별도로	-12228
▁사용한	-12229
▁사이즈	-12230
▁역사를	-12231
▁tears	-12232
▁destination	-12233
이로	-12234
▁숙박	-12235
▁pig	-12236
inger	-12237
▁만들었다	-12238
▁함께하는	-12239
▁appreciate	-12240
발을	-12241
▁빠진	-12242
▁개인정보	-12243
▁surpass	-12244
▁violations	-12245
▁묶	-12246
▁둔다	-12247
raid	-12248
▁보여주	-12249
▁이것을	-12250
astern	-12251
▁밟	-12252
천시	-12253
▁맞은	-12254
▁생기	-12255
▁설문	-12256
▁심화	-12257
▁처분	-12258
케이션	-12259
카르	-12260
800	-12261
▁한층	-12262
▁상당한	-12263
▁Self	-12264
▁kilomet	-12265
각을	-12266
This	-12267
▁Ant	-12268
▁높이고	-12269
▁세상을	-12270
서비스를	-12271
ema	-12272
▁면세	-12273
▁경쟁력을	-12274
including	-12275
▁lifelong	-12276
▁냄	-12277
식에는	-12278
▁hundreds	-12279
▁보증	-12280
▁능력을	-12281
▁Analysts	-12282
▁teaching	-12283
NA	-12284
능력	-12285
pet	-12286
▁성격	-12287
▁Moo	-12288
▁conclusion	-12289
▁multicultural	-12290
재로	-12291
▁기후	-12292
▁분야에	-12293
▁고려하여	-12294
▁usual	-12295
▁기자회견을	-12296
tr	-12297
치의	-12298
친구	-12299
과장은	-12300
▁(3)	-12301
▁sat	-12302
▁미래를	-12303
▁바람이	-12304
▁oppos	-12305
▁semin	-12306
▁festivals	-12307
▁voluntary	-12308
▁preventing	-12309
치료	-12310
▁Three	-12311
▁fallen	-12312
▁멜	-12313
자유	-12314
▁맞게	-12315
▁세미	-12316
▁공부를	-12317
▁네이버	-12318
▁사진이	-12319
▁중심의	-12320
▁사람들을	-12321
achment	-12322
▁afraid	-12323
▁streets	-12324
였고	-12325
직한	-12326
▁운송	-12327
▁철거	-12328
▁fulf	-12329
▁phones	-12330
▁Another	-12331
8)	-12332
▁춘	-12333
럭시	-12334
▁IP	-12335
▁걸어	-12336
azon	-12337
▁Lun	-12338
▁원활한	-12339
▁직무를	-12340
▁snack	-12341
▁remained	-12342
▁smoothly	-12343
▁supplied	-12344
▁previously	-12345
(7	-12346
▁세무	-12347
amic	-12348
▁자연스럽게	-12349
▁strange	-12350
▁Fisheries	-12351
▁surprised	-12352
전시	-12353
▁좋습니다	-12354
▁Following	-12355
gae	-12356
▁서명	-12357
센터를	-12358
▁Sim	-12359
▁어르신	-12360
▁하겠다	-12361
▁begins	-12362
▁strategic	-12363
▁렌	-12364
▁고교	-12365
▁테마	-12366
▁행위	-12367
▁아이템	-12368
▁않다는	-12369
▁2002	-12370
▁Congress	-12371
실은	-12372
합의	-12373
화의	-12374
▁테니	-12375
▁사항이	-12376
wondo	-12377
▁Tong	-12378
▁closing	-12379
▁accompanied	-12380
▁꽤	-12381
등을	-12382
▁특검	-12383
되거나	-12384
▁이르는	-12385
arity	-12386
▁Second	-12387
▁repeatedly	-12388
조직	-12389
했어	-12390
▁Songpa	-12391
판에	-12392
▁공을	-12393
ighter	-12394
▁Naver	-12395
▁safely	-12396
▁messages	-12397
▁accumulated	-12398
액은	-12399
타임	-12400
eal	-12401
▁말한	-12402
▁성인	-12403
▁인사를	-12404
▁전화를	-12405
▁optim	-12406
고에	-12407
원한	-12408
행사	-12409
▁멋진	-12410
▁미국은	-12411
▁Bucheon	-12412
▁Twitter	-12413
MC	-12414
▁가시	-12415
▁준수	-12416
▁Ham	-12417
▁조사하고	-12418
▁dreams	-12419
▁hidden	-12420
▁perspective	-12421
▁그럴	-12422
▁남부	-12423
▁벤처	-12424
▁스티	-12425
▁재능	-12426
▁적응	-12427
▁주에	-12428
▁제품에	-12429
▁실시한다	-12430
essions	-12431
▁smoking	-12432
▁steadily	-12433
▁때가	-12434
▁신선	-12435
▁클라	-12436
cknow	-12437
▁Thursday	-12438
▁harassment	-12439
36	-12440
보증	-12441
urse	-12442
▁아무리	-12443
▁Does	-12444
▁deeply	-12445
▁guests	-12446
inations	-12447
▁restrictions	-12448
▁Entertainment	-12449
ris	-12450
▁KO	-12451
▁맛이	-12452
▁평가가	-12453
▁Joint	-12454
▁climate	-12455
▁Hyo	-12456
▁voluntarily	-12457
▁상업	-12458
▁영화가	-12459
▁보입니다	-12460
형의	-12461
▁알려주	-12462
▁Forum	-12463
▁chosen	-12464
▁chemical	-12465
▁landscape	-12466
▁implementing	-12467
고기	-12468
▁84	-12469
▁위임	-12470
관계가	-12471
▁규정을	-12472
▁능력이	-12473
▁일이다	-12474
▁Kook	-12475
lihood	-12476
▁2014,	-12477
imately	-12478
▁Control	-12479
▁massive	-12480
TO	-12481
▁간편	-12482
▁매주	-12483
▁야외	-12484
▁sav	-12485
▁현장을	-12486
▁stim	-12487
▁Class	-12488
▁civilian	-12489
기획	-12490
사이	-12491
소비	-12492
▁돋보	-12493
▁충족	-12494
았는데	-12495
▁사이에서	-12496
▁dollar	-12497
▁removed	-12498
put	-12499
▁되기	-12500
omer	-12501
▁Ser	-12502
▁kid	-12503
▁참여를	-12504
▁fake	-12505
▁진행되고	-12506
▁anxiety	-12507
▁expenditure	-12508
▁uncomfortable	-12509
가구	-12510
론을	-12511
appy	-12512
▁KBO	-12513
▁tens	-12514
▁Girls	-12515
▁autumn	-12516
▁제정	-12517
▁내용은	-12518
▁studied	-12519
인에	-12520
트리	-12521
▁얻을	-12522
▁아이를	-12523
▁roof	-12524
▁wire	-12525
▁observ	-12526
▁김태	-12527
▁Which	-12528
umi	-12529
▁가계	-12530
▁병역	-12531
▁소프트	-12532
▁열었다	-12533
▁Hang	-12534
▁valu	-12535
당국은	-12536
▁모으고	-12537
▁위험이	-12538
▁즐거운	-12539
▁하거나	-12540
▁aims	-12541
▁아프리카	-12542
▁acknow	-12543
▁routes	-12544
▁사기	-12545
▁자발	-12546
▁투어	-12547
bong	-12548
▁예상되는	-12549
▁Exchange	-12550
▁heritage	-12551
▁emotional	-12552
5)	-12553
▁최창	-12554
▁Ltd	-12555
▁soup	-12556
mother	-12557
▁assoc	-12558
ortunately	-12559
▁머리	-12560
▁아닐	-12561
목으로	-12562
▁동일한	-12563
적으로는	-12564
▁cells	-12565
▁Square	-12566
▁missile	-12567
▁permanent	-12568
▁shareholder	-12569
판이	-12570
▁봤다	-12571
▁위안	-12572
▁가이드	-12573
▁Once	-12574
▁inquir	-12575
동물	-12576
▁LA	-12577
▁미중	-12578
▁충격	-12579
rary	-12580
▁서울대	-12581
▁prohib	-12582
▁북미정상회담	-12583
▁martial	-12584
▁Disaster	-12585
▁neighborhood	-12586
POP	-12587
▁출마	-12588
유치원	-12589
▁뮤지컬	-12590
▁auto	-12591
▁complic	-12592
▁interior	-12593
▁opponent	-12594
▁feet	-12595
▁내다봤다	-12596
▁classified	-12597
▁resignation	-12598
되었고	-12599
▁게임을	-12600
▁abund	-12601
▁Doosan	-12602
▁stream	-12603
▁firefight	-12604
배가	-12605
▁FTA	-12606
▁차량을	-12607
▁상태에서	-12608
▁어려움이	-12609
▁anticip	-12610
망이	-12611
차별	-12612
▁몸을	-12613
▁분석이다	-12614
▁청와대가	-12615
▁employed	-12616
▁문학	-12617
▁장학	-12618
▁존중	-12619
▁일정이	-12620
▁milk	-12621
▁franchise	-12622
▁미군	-12623
▁신흥	-12624
▁holds	-12625
▁servants	-12626
▁supplies	-12627
기념	-12628
▁붙잡	-12629
▁기능이	-12630
▁총리가	-12631
▁이번에는	-12632
▁fires	-12633
▁Articles	-12634
▁매니	-12635
▁치매	-12636
▁것보다	-12637
▁계획이	-12638
▁회사에	-12639
▁Paul	-12640
▁Hyung	-12641
▁proud	-12642
▁certified	-12643
아버	-12644
▁수백	-12645
▁확충	-12646
ifts	-12647
▁중학교	-12648
▁Guard	-12649
▁disclose	-12650
님의	-12651
gyo	-12652
▁모은	-12653
심에서	-12654
andis	-12655
▁resulting	-12656
▁restoration	-12657
▁겹	-12658
▁닫	-12659
당과	-12660
방에	-12661
ama	-12662
▁물류	-12663
▁성능	-12664
▁유관	-12665
▁쪽으로	-12666
▁활동이	-12667
▁thick	-12668
▁죄송하지만	-12669
▁auditor	-12670
▁battery	-12671
▁compete	-12672
▁disasters	-12673
▁achievements	-12674
베이	-12675
bin	-12676
▁서해	-12677
▁조사한	-12678
sufficient	-12679
▁institutional	-12680
세에	-12681
400	-12682
▁텐데	-12683
maker	-12684
▁extend	-12685
uct	-12686
▁스웨	-12687
신가요	-12688
▁Pat	-12689
▁경쟁력	-12690
▁bicycle	-12691
▁sincere	-12692
▁sources	-12693
집을	-12694
▁공통	-12695
aret	-12696
▁방향을	-12697
▁잘못된	-12698
▁정책이	-12699
▁prefer	-12700
진에	-12701
▁검출	-12702
▁오랫	-12703
▁보내주	-12704
▁spect	-12705
▁Galaxy	-12706
▁freedom	-12707
▁serving	-12708
▁momentum	-12709
도서관	-12710
▁Mapo	-12711
eth	-12712
▁예전	-12713
▁너에게	-12714
eting	-12715
▁마련됐다	-12716
▁미국에서	-12717
ounter	-12718
▁irregular	-12719
39	-12720
포럼	-12721
▁GM	-12722
▁너를	-12723
▁두려	-12724
▁publish	-12725
서로	-12726
osu	-12727
▁점유	-12728
당에서	-12729
wood	-12730
▁Sewol	-12731
▁refused	-12732
▁Southeast	-12733
▁formation	-12734
ga	-12735
gye	-12736
▁guess	-12737
사법	-12738
▁관악	-12739
▁한미	-12740
osun	-12741
▁Bel	-12742
▁Gap	-12743
▁사건의	-12744
▁Post	-12745
▁홈페이지	-12746
▁Times	-12747
▁manipulation	-12748
▁GS	-12749
rian	-12750
▁어디에	-12751
▁이뤄진	-12752
▁특별히	-12753
aekwondo	-12754
▁matches	-12755
▁maintaining	-12756
▁investigations	-12757
사건	-12758
▁동해	-12759
▁지상	-12760
▁한강	-12761
▁90%	-12762
▁Har	-12763
▁비판이	-12764
▁고용노동	-12765
▁Rural	-12766
▁cited	-12767
▁collapsed	-12768
주행	-12769
▁이래	-12770
▁입력	-12771
▁진흥	-12772
▁크고	-12773
▁날씨가	-12774
▁만나는	-12775
abinet	-12776
▁keeping	-12777
▁utilize	-12778
▁presence	-12779
▁60%	-12780
▁내렸다	-12781
▁좋겠다	-12782
▁환자가	-12783
▁Panmun	-12784
▁theory	-12785
▁governed	-12786
▁selecting	-12787
▁generations	-12788
iant	-12789
▁성폭력	-12790
▁필요할	-12791
▁2004	-12792
▁Amazon	-12793
▁Gwanak	-12794
▁detect	-12795
▁exhibitions	-12796
드려	-12797
박물	-12798
워서	-12799
▁저를	-12800
▁cup	-12801
▁upd	-12802
▁심사를	-12803
▁이하의	-12804
▁오랫동안	-12805
▁Paris	-12806
▁graduate	-12807
▁하자	-12808
연구소	-12809
▁그렇지	-12810
▁상태로	-12811
▁expense	-12812
▁adjustment	-12813
▁thoroughly	-12814
여개	-12815
▁영업이	-12816
▁furn	-12817
profit	-12818
▁displayed	-12819
통을	-12820
▁67	-12821
▁것이라	-12822
▁anymore	-12823
generation	-12824
비와	-12825
▁격려	-12826
▁겪는	-12827
▁번째로	-12828
▁cake	-12829
▁pork	-12830
▁서울중앙	-12831
▁feasibility	-12832
중소	-12833
TBC	-12834
▁그중	-12835
norm	-12836
rupt	-12837
▁Imp	-12838
▁단순히	-12839
▁행위를	-12840
▁quiet	-12841
▁ultra	-12842
▁supposed	-12843
eon	-12844
▁다루	-12845
▁대처	-12846
▁Sen	-12847
▁좋아요	-12848
▁Next	-12849
▁때문이에요	-12850
▁mutatis	-12851
▁settled	-12852
▁correspond	-12853
▁술을	-12854
▁후속	-12855
▁전기차	-12856
▁Card	-12857
▁시민단체	-12858
▁opposed	-12859
▁willingness	-12860
유를	-12861
asc	-12862
▁소관	-12863
▁기온이	-12864
▁impr	-12865
▁magaz	-12866
▁solar	-12867
▁factories	-12868
4)	-12869
hai	-12870
▁72	-12871
▁단기	-12872
▁의존	-12873
▁ton	-12874
▁활동에	-12875
habilit	-12876
ometown	-12877
설이	-12878
청에	-12879
▁균형	-12880
▁부처	-12881
▁송파	-12882
▁스튜	-12883
When	-12884
iger	-12885
ingu	-12886
▁Hon	-12887
▁서울의	-12888
▁연구원은	-12889
▁violating	-12890
▁cancellation	-12891
들어	-12892
▁배려	-12893
▁육아	-12894
▁지분	-12895
ello	-12896
▁문화가	-12897
▁화려한	-12898
▁customs	-12899
▁물러	-12900
인들은	-12901
▁Jak	-12902
▁김씨는	-12903
▁없으면	-12904
▁mutandis	-12905
AD	-12906
▁aw	-12907
▁김현	-12908
▁뉴스	-12909
▁Buk	-12910
▁incor	-12911
▁radio	-12912
▁escape	-12913
▁enjoying	-12914
▁principal	-12915
근무	-12916
디션	-12917
▁국방부	-12918
▁사항에	-12919
▁Tele	-12920
▁국내에서	-12921
▁워크	-12922
▁symp	-12923
▁peninsula	-12924
공업	-12925
하였고	-12926
acing	-12927
▁inher	-12928
수산	-12929
▁Fl	-12930
지인	-12931
협약	-12932
▁Qu	-12933
▁내내	-12934
▁맡아	-12935
▁무더	-12936
▁시선을	-12937
▁코리아	-12938
▁국가대표	-12939
▁않는다는	-12940
▁인터뷰에서	-12941
▁Asiana	-12942
▁exting	-12943
▁게재	-12944
▁극단	-12945
▁대여	-12946
▁일환	-12947
▁하나가	-12948
▁chair	-12949
▁closer	-12950
▁extingu	-12951
Committee	-12952
▁strategies	-12953
▁둔화	-12954
▁부작	-12955
식에서	-12956
athy	-12957
▁cheap	-12958
▁solved	-12959
▁Competition	-12960
권은	-12961
익이	-12962
함과	-12963
▁매력	-12964
▁않기	-12965
▁열릴	-12966
▁이정	-12967
▁guil	-12968
▁fisher	-12969
평양	-12970
▁상환	-12971
▁시점	-12972
▁기업을	-12973
▁생활을	-12974
▁recip	-12975
▁최신	-12976
▁호에	-12977
주시기	-12978
▁최창식	-12979
▁제기됐다	-12980
▁주민들의	-12981
▁Bureau	-12982
▁pieces	-12983
매매	-12984
문제	-12985
▁면제	-12986
eong	-12987
▁진행한	-12988
▁크리스마	-12989
▁2016.	-12990
▁risks	-12991
▁Awards	-12992
▁Jeonju	-12993
▁국무위원장이	-12994
▁workplace	-12995
▁sufficient	-12996
▁가스	-12997
▁들려	-12998
▁지목	-12999
사업이	-13000
▁draft	-13001
oT	-13002
하길	-13003
▁공포	-13004
▁사찰	-13005
etic	-13006
▁담겼다	-13007
▁정보가	-13008
duces	-13009
▁phil	-13010
▁Techn	-13011
▁aired	-13012
▁mobil	-13013
▁issuance	-13014
▁refugees	-13015
▁조용	-13016
졌지만	-13017
▁보건복지	-13018
▁Author	-13019
▁identify	-13020
▁livelihood	-13021
▁85	-13022
▁며칠	-13023
▁클래	-13024
▁늘어날	-13025
워요	-13026
▁걸릴	-13027
▁들을	-13028
▁품목	-13029
▁준비를	-13030
▁회장의	-13031
▁subcontract	-13032
면이	-13033
버그	-13034
수한	-13035
▁1:	-13036
▁Ky	-13037
▁익숙	-13038
▁합리	-13039
▁adm	-13040
▁답했다	-13041
▁영향이	-13042
▁Mike	-13043
▁교통사고	-13044
▁교과	-13045
tech	-13046
▁시리즈	-13047
▁Gong	-13048
▁데이터를	-13049
▁있었는데	-13050
▁harmony	-13051
▁earnings	-13052
sm	-13053
중인	-13054
축제	-13055
▁간호	-13056
▁정지	-13057
일자리	-13058
▁안정적인	-13059
▁중국에서	-13060
▁마지막으로	-13061
▁answers	-13062
▁acquaint	-13063
▁startups	-13064
▁그만	-13065
▁모임	-13066
▁세금	-13067
▁boom	-13068
▁calm	-13069
▁depict	-13070
▁Maritime	-13071
▁belonging	-13072
▁kilometers	-13073
▁멘	-13074
▁호와	-13075
되기도	-13076
시설이	-13077
▁제공한다	-13078
▁에스	-13079
센터는	-13080
으로도	-13081
▁노동자	-13082
▁최초의	-13083
▁주관하는	-13084
▁학생들은	-13085
▁Buddhist	-13086
감한	-13087
▁성실	-13088
▁아베	-13089
▁합류	-13090
▁나타난	-13091
point	-13092
while	-13093
▁ships	-13094
▁portion	-13095
▁아들	-13096
정부가	-13097
enty	-13098
▁spicy	-13099
▁Summit	-13100
ilateral	-13101
▁celebrate	-13102
29	-13103
▁십	-13104
공급	-13105
일보	-13106
중국	-13107
▁김포	-13108
arta	-13109
▁absence	-13110
▁진로	-13111
기까지	-13112
born	-13113
amber	-13114
▁processed	-13115
크를	-13116
▁원의	-13117
itch	-13118
▁머리를	-13119
▁subsidiary	-13120
37	-13121
비로	-13122
▁Mo	-13123
▁다이	-13124
▁교육과	-13125
▁Olympic	-13126
▁practices	-13127
tra	-13128
▁textbook	-13129
프가	-13130
▁기원	-13131
ores	-13132
▁25%	-13133
▁토요일	-13134
▁worst	-13135
▁permit	-13136
감과	-13137
놨다	-13138
600	-13139
▁방치	-13140
▁찍은	-13141
▁관측이	-13142
▁Consum	-13143
Ph	-13144
법은	-13145
suk	-13146
▁부채	-13147
rown	-13148
▁원인을	-13149
▁blow	-13150
▁humans	-13151
▁neighbors	-13152
▁struggling	-13153
▁샀	-13154
▁동참	-13155
▁이내로	-13156
▁phase	-13157
▁congrat	-13158
▁outcome	-13159
▁assaulted	-13160
▁동기	-13161
▁유족	-13162
▁검사를	-13163
▁세계에서	-13164
▁mandatory	-13165
산화	-13166
미디어	-13167
은행이	-13168
▁그리스	-13169
▁기간을	-13170
▁일주일	-13171
▁shel	-13172
igaret	-13173
▁moist	-13174
▁regarded	-13175
▁튀	-13176
말을	-13177
▁NH	-13178
▁태권	-13179
가지로	-13180
▁voc	-13181
olute	-13182
▁Chan	-13183
ederation	-13184
▁countermeasures	-13185
▁La	-13186
▁조심	-13187
▁hung	-13188
▁진행한다	-13189
▁admitted	-13190
▁Officials	-13191
▁과제	-13192
재정부	-13193
page	-13194
▁경쟁이	-13195
▁쓰레기	-13196
▁있다며	-13197
▁공정거래	-13198
▁states	-13199
▁producing	-13200
38	-13201
▁넷	-13202
▁분노	-13203
Park	-13204
▁이들을	-13205
▁종로구	-13206
▁폐기물	-13207
▁Swed	-13208
▁덮	-13209
출산	-13210
▁판문	-13211
▁펀드	-13212
▁pal	-13213
▁근로자	-13214
▁basket	-13215
▁impose	-13216
cription	-13217
▁imports	-13218
행에	-13219
▁9,	-13220
▁목격	-13221
이어서	-13222
▁Leg	-13223
▁마련된	-13224
▁위원으로	-13225
▁Future	-13226
▁disputes	-13227
바른	-13228
▁이명	-13229
▁화학	-13230
itis	-13231
▁분명히	-13232
▁페스티벌	-13233
▁casual	-13234
▁꺾	-13235
▁소리	-13236
▁직전	-13237
▁2.5	-13238
▁Bas	-13239
▁Out	-13240
▁Pay	-13241
▁부분은	-13242
▁젊은이	-13243
▁restruct	-13244
현이	-13245
▁임원	-13246
관으로	-13247
레이드	-13248
▁Cal	-13249
▁rebound	-13250
.'	-13251
AE	-13252
론이	-13253
▁김종	-13254
▁마주	-13255
▁아마존	-13256
▁입장이다	-13257
▁학교에서	-13258
▁satisfied	-13259
▁seriously	-13260
▁『	-13261
▁떡	-13262
대사	-13263
라가	-13264
래요	-13265
풍이	-13266
할지	-13267
▁충청	-13268
▁경제가	-13269
▁보조금	-13270
▁Deok	-13271
▁보유하고	-13272
▁error	-13273
▁arranged	-13274
액의	-13275
위기	-13276
해왔	-13277
▁검은	-13278
▁나섰	-13279
▁단위	-13280
▁본인	-13281
생활을	-13282
▁위원이	-13283
▁reun	-13284
▁smoke	-13285
▁waves	-13286
▁fighting	-13287
포먼	-13288
▁공인	-13289
산업의	-13290
arbage	-13291
▁Dream	-13292
▁harmful	-13293
▁lowered	-13294
▁발사	-13295
▁전투	-13296
▁출판	-13297
wing	-13298
▁Abe	-13299
▁높이는	-13300
▁없었던	-13301
▁Corp	-13302
▁Autonom	-13303
▁informed	-13304
▁swimming	-13305
▁intellectual	-13306
늦게	-13307
양이	-13308
원장	-13309
회와	-13310
▁곳을	-13311
▁메르	-13312
▁임신	-13313
rapy	-13314
▁개선을	-13315
enery	-13316
▁fails	-13317
▁timing	-13318
▁Tuesday	-13319
▁winners	-13320
▁accurate	-13321
▁controversial	-13322
모를	-13323
임대	-13324
▁미팅	-13325
▁시사	-13326
fast	-13327
▁Mor	-13328
▁2021	-13329
▁wine	-13330
▁Shang	-13331
▁teach	-13332
▁somewhat	-13333
복합	-13334
pil	-13335
▁양측	-13336
ultane	-13337
▁clothing	-13338
▁무시	-13339
▁evac	-13340
▁dementia	-13341
habilitation	-13342
번호	-13343
▁발언을	-13344
▁주변에	-13345
urrence	-13346
▁hometown	-13347
▁콩	-13348
가와	-13349
처분	-13350
▁석유	-13351
▁수료	-13352
▁사고를	-13353
▁어떠한	-13354
birth	-13355
▁포함하여	-13356
남도	-13357
이니	-13358
지수	-13359
▁냄새	-13360
▁미칠	-13361
▁안녕	-13362
▁포럼	-13363
▁성장을	-13364
▁저렴한	-13365
▁정규직	-13366
▁좋겠어요	-13367
▁length	-13368
▁않으	-13369
▁받아들이	-13370
▁느꼈	-13371
▁미국에	-13372
▁줄어든	-13373
▁확인한	-13374
▁iron	-13375
▁neck	-13376
▁stages	-13377
▁흰	-13378
겠네요	-13379
▁기준에	-13380
▁본인이	-13381
▁최근에는	-13382
▁기획재정부	-13383
▁analyze	-13384
34	-13385
공공	-13386
티즌	-13387
▁발주	-13388
공사가	-13389
▁유일한	-13390
▁larger	-13391
▁limitations	-13392
▁Constitutional	-13393
▁어깨	-13394
▁Who	-13395
▁바이어	-13396
▁분석한	-13397
▁POSCO	-13398
▁operates	-13399
▁precious	-13400
▁Conference	-13401
▁engineering	-13402
렸던	-13403
르지	-13404
받침	-13405
종을	-13406
▁살인	-13407
기간이	-13408
▁보고서	-13409
▁실적이	-13410
▁음주운	-13411
고등학교	-13412
▁콘텐츠를	-13413
▁probably	-13414
▁Uzbekistan	-13415
▁휩	-13416
.0%	-13417
urb	-13418
▁아름다	-13419
억원으로	-13420
onents	-13421
▁incumb	-13422
토록	-13423
▁Test	-13424
▁folk	-13425
▁philos	-13426
▁Election	-13427
연한	-13428
▁감시	-13429
▁계절	-13430
▁맞지	-13431
▁삭제	-13432
▁신입	-13433
▁맛있는	-13434
▁부분에	-13435
▁쇼핑몰	-13436
▁Here	-13437
▁inauguration	-13438
▁얻어	-13439
였지만	-13440
▁반응이	-13441
▁차량이	-13442
▁Club	-13443
▁원내대표는	-13444
▁boyfriend	-13445
oto	-13446
▁경계	-13447
▁심리	-13448
▁영수	-13449
▁일에	-13450
▁정도가	-13451
▁주목을	-13452
▁dele	-13453
▁이상으로	-13454
▁balanced	-13455
ID	-13456
분쟁	-13457
▁갖춰	-13458
▁날씨	-13459
▁성별	-13460
▁amb	-13461
▁risen	-13462
▁missed	-13463
▁2.	-13464
▁FA	-13465
▁소외	-13466
하다가	-13467
▁마세요	-13468
▁손해배	-13469
ocheon	-13470
▁Chosun	-13471
▁Jakarta	-13472
인터	-13473
▁듯한	-13474
▁부지	-13475
정규직	-13476
하기를	-13477
▁많아서	-13478
▁제도를	-13479
▁Like	-13480
▁angry	-13481
▁helic	-13482
inating	-13483
▁reviews	-13484
▁seniors	-13485
zy	-13486
구로	-13487
렉시	-13488
▁나눔	-13489
▁등급	-13490
▁명칭	-13491
▁상용	-13492
night	-13493
▁Okay	-13494
acheon	-13495
▁방영	-13496
▁정규	-13497
▁협상이	-13498
▁bread	-13499
보장	-13500
▁주지	-13501
▁수사가	-13502
▁immun	-13503
inisters	-13504
▁perception	-13505
▁particularly	-13506
99	-13507
세의	-13508
▁돌입	-13509
▁물이	-13510
▁입원	-13511
▁지닌	-13512
▁inn	-13513
▁cream	-13514
▁Chungnam	-13515
▁promising	-13516
었기	-13517
터가	-13518
터를	-13519
▁전파	-13520
▁폭로	-13521
word	-13522
▁연락을	-13523
▁utilizing	-13524
차는	-13525
amm	-13526
▁MC	-13527
▁건너	-13528
인들에게	-13529
▁copy	-13530
▁시행규칙	-13531
myeong	-13532
▁helicop	-13533
▁지역경제	-13534
▁Branch	-13535
▁Theater	-13536
▁맑	-13537
▁장이	-13538
데이트	-13539
▁과정에	-13540
▁과정이	-13541
▁하는지	-13542
▁inject	-13543
▁circles	-13544
▁Deliberation	-13545
▁섞	-13546
▁을	-13547
골을	-13548
리핑	-13549
주와	-13550
xit	-13551
▁뒤를	-13552
▁오프	-13553
olic	-13554
otic	-13555
▁160	-13556
▁자리가	-13557
▁Wang	-13558
▁2017.	-13559
▁granted	-13560
리면	-13561
▁77	-13562
▁두산	-13563
▁비치	-13564
▁서민	-13565
▁창작	-13566
▁공간이	-13567
▁국민이	-13568
▁Chae	-13569
▁작성하여	-13570
▁추모	-13571
만원의	-13572
▁기관의	-13573
▁기업에	-13574
▁된다고	-13575
haust	-13576
▁JTBC	-13577
▁Prize	-13578
▁bodies	-13579
▁vegetables	-13580
▁insufficient	-13581
host	-13582
rete	-13583
ented	-13584
▁그렇다면	-13585
▁insisted	-13586
▁expiration	-13587
▁statements	-13588
▁temperatures	-13589
노조	-13590
▁높게	-13591
▁등도	-13592
▁신임	-13593
지역의	-13594
▁금액을	-13595
▁Over	-13596
▁대한항공	-13597
▁Revolution	-13598
▁대외	-13599
관계를	-13600
▁스웨덴	-13601
▁영화는	-13602
▁involve	-13603
회관	-13604
▁공약	-13605
▁상태가	-13606
▁없는데	-13607
▁집으로	-13608
▁Libr	-13609
▁note	-13610
▁경기북부	-13611
isting	-13612
▁Pastor	-13613
▁Members	-13614
▁sitting	-13615
32	-13616
▁널리	-13617
▁이게	-13618
▁Ber	-13619
▁west	-13620
▁빅데이터	-13621
▁원칙으로	-13622
▁micro	-13623
angible	-13624
▁joining	-13625
▁slowdown	-13626
▁generated	-13627
▁incumbent	-13628
▁새해	-13629
▁신문	-13630
▁어때	-13631
▁재발	-13632
▁지내	-13633
body	-13634
▁다음과	-13635
▁일어난	-13636
▁투자가	-13637
force	-13638
▁Black	-13639
▁climb	-13640
inances	-13641
▁Kookmin	-13642
▁curious	-13643
▁Gwangjin	-13644
▁partially	-13645
부로	-13646
질의	-13647
치로	-13648
▁지명	-13649
카르타	-13650
▁테이블	-13651
▁garbage	-13652
▁invoice	-13653
률은	-13654
유통	-13655
▁발령	-13656
▁청약	-13657
writ	-13658
▁Put	-13659
▁갤럭시	-13660
urches	-13661
▁Exhibition	-13662
▁indicators	-13663
gin	-13664
▁발효	-13665
▁장식	-13666
▁학술	-13667
▁휴가	-13668
▁rid	-13669
▁offers	-13670
▁honorary	-13671
▁만료	-13672
▁키워	-13673
▁부장판	-13674
▁얘기다	-13675
▁subordinate	-13676
▁매매	-13677
▁전원	-13678
▁진상	-13679
▁치러	-13680
▁Goryeo	-13681
▁시가	-13682
▁정식	-13683
▁떨어지는	-13684
▁Force	-13685
▁piece	-13686
▁exactly	-13687
▁Resources	-13688
▁championship	-13689
▁consultations	-13690
An	-13691
MS	-13692
만여	-13693
▁무상	-13694
▁보좌	-13695
irds	-13696
▁truck	-13697
▁냈다	-13698
▁LED	-13699
▁준용한다	-13700
▁Namyang	-13701
My	-13702
견을	-13703
문학	-13704
부담	-13705
▁내놓은	-13706
▁uncon	-13707
Chairman	-13708
▁sexually	-13709
▁simultane	-13710
▁effectively	-13711
EX	-13712
▁꼼	-13713
와는	-13714
인력	-13715
▁만났	-13716
▁순위	-13717
▁그에게	-13718
▁abundant	-13719
▁confront	-13720
▁칭	-13721
▁노무	-13722
▁반박	-13723
stan	-13724
▁pul	-13725
▁네티즌	-13726
▁무대에	-13727
▁Hist	-13728
▁생각하고	-13729
▁소상공인	-13730
▁remov	-13731
▁hearts	-13732
▁고향	-13733
▁매달	-13734
▁주기	-13735
콘텐츠	-13736
▁die	-13737
▁않아서	-13738
▁pool	-13739
▁구청장의	-13740
▁실시하고	-13741
ounder	-13742
▁Training	-13743
▁percentage	-13744
놓고	-13745
▁문건	-13746
▁지사	-13747
▁시간은	-13748
▁아버지	-13749
▁지정된	-13750
▁퍼포먼	-13751
▁denied	-13752
▁stayed	-13753
▁allowance	-13754
이상	-13755
적한	-13756
jud	-13757
▁관여	-13758
▁급여	-13759
▁무려	-13760
▁소규모	-13761
▁증상이	-13762
▁재판부는	-13763
▁증가했다	-13764
▁참여했다	-13765
▁행정안전	-13766
▁constantly	-13767
▁닭	-13768
berg	-13769
▁관리에	-13770
▁sauce	-13771
▁Cooper	-13772
종이	-13773
하러	-13774
▁부착	-13775
화하는	-13776
▁Eui	-13777
▁치열한	-13778
▁Seon	-13779
▁세계적으로	-13780
▁attrib	-13781
▁funding	-13782
국인	-13783
평균	-13784
▁의장	-13785
▁당분간	-13786
▁poss	-13787
▁manpower	-13788
IST	-13789
▁항소	-13790
▁화물	-13791
▁도지사	-13792
▁즐기는	-13793
▁패스트	-13794
▁한계가	-13795
▁Guro	-13796
▁자카르타	-13797
▁한국문화	-13798
▁Italy	-13799
President	-13800
급여	-13801
hun	-13802
▁목숨을	-13803
▁earned	-13804
▁advertisement	-13805
▁잦	-13806
말로	-13807
졌던	-13808
▁싫어	-13809
uate	-13810
▁드리겠습니다	-13811
▁volunteers	-13812
▁개통	-13813
▁맡고	-13814
▁매월	-13815
었으나	-13816
cert	-13817
▁KTX	-13818
▁발생해	-13819
▁대중교통	-13820
▁beach	-13821
jeongbu	-13822
▁reviewing	-13823
▁girlfriend	-13824
안과	-13825
▁남양	-13826
▁빌려	-13827
▁천연	-13828
▁현황	-13829
▁대통령을	-13830
▁Airlines	-13831
▁닿	-13832
▁붉	-13833
렸고	-13834
위탁	-13835
▁보행	-13836
▁Foot	-13837
▁Angel	-13838
▁arrange	-13839
▁sensitive	-13840
▁Protection	-13841
지난	-13842
▁스위	-13843
▁늘었다	-13844
▁독특한	-13845
▁포스코	-13846
▁membership	-13847
▁일방	-13848
▁넘치는	-13849
▁뒷받침	-13850
▁하나님의	-13851
▁Proper	-13852
▁Jeonnam	-13853
▁colonial	-13854
공장	-13855
▁CO	-13856
▁권리	-13857
▁thr	-13858
▁settle	-13859
▁Commerce	-13860
▁literature	-13861
▁Presidential	-13862
Un	-13863
얀마	-13864
리면서	-13865
▁받는다	-13866
▁temple	-13867
▁expressing	-13868
EU	-13869
짜리	-13870
▁Os	-13871
▁공원	-13872
▁Book	-13873
▁사용자가	-13874
▁실질적인	-13875
▁Given	-13876
▁carbon	-13877
▁citing	-13878
▁answered	-13879
느라	-13880
료의	-13881
▁76	-13882
▁강아	-13883
▁구직	-13884
▁캠프	-13885
▁금메달	-13886
▁사유로	-13887
▁훌륭한	-13888
▁root	-13889
▁excluding	-13890
마자	-13891
화는	-13892
▁가질	-13893
▁되며	-13894
uous	-13895
▁곧바로	-13896
▁않을까	-13897
▁1970	-13898
▁업데이트	-13899
inking	-13900
▁Lunar	-13901
수석	-13902
▁선적	-13903
▁찾기	-13904
했는지	-13905
▁동영상	-13906
▁무엇이	-13907
field	-13908
▁glad	-13909
family	-13910
▁abnorm	-13911
▁fundamental	-13912
▁subscribers	-13913
6)	-13914
▁Tom	-13915
▁kill	-13916
▁만들어진	-13917
▁성공적으로	-13918
▁scenes	-13919
▁critical	-13920
gok	-13921
▁골목	-13922
kyun	-13923
▁되도록	-13924
inals	-13925
▁2013,	-13926
▁Major	-13927
▁donations	-13928
▁NC	-13929
▁갖는	-13930
▁절감	-13931
▁기대가	-13932
▁성적을	-13933
▁심지어	-13934
▁이같은	-13935
▁bear	-13936
▁shout	-13937
▁scores	-13938
▁exhaust	-13939
▁temporarily	-13940
▁preservation	-13941
DS	-13942
▁없기	-13943
▁접속	-13944
▁화가	-13945
aming	-13946
▁연구개발	-13947
▁studio	-13948
▁assistance	-13949
▁subscription	-13950
rok	-13951
▁아울	-13952
▁Gimpo	-13953
▁tuition	-13954
▁reflecting	-13955
로그	-13956
▁뮤직	-13957
▁색깔	-13958
▁위축	-13959
됐습니다	-13960
▁absolute	-13961
▁상무	-13962
▁다르게	-13963
▁위촉한다	-13964
▁faced	-13965
ounting	-13966
▁separated	-13967
소한	-13968
전과	-13969
▁라인	-13970
심으로	-13971
lock	-13972
▁국가가	-13973
▁기록을	-13974
▁자금을	-13975
▁모니터링	-13976
▁법원행정	-13977
▁Broad	-13978
고는	-13979
아의	-13980
야구	-13981
업에	-13982
품이	-13983
▁시공	-13984
▁형태의	-13985
▁letters	-13986
inistries	-13987
▁VR	-13988
▁서구	-13989
▁되면서	-13990
▁성폭행	-13991
▁정책에	-13992
▁marks	-13993
▁sixth	-13994
fledged	-13995
▁killing	-13996
▁emotions	-13997
루킹	-13998
▁깊이	-13999
▁에너	-14000
스토랑	-14001
하기가	-14002
▁달라고	-14003
▁작업이	-14004
▁주민이	-14005
▁협력을	-14006
▁회사는	-14007
▁Unions	-14008
▁batter	-14009
▁client	-14010
▁advertisements	-14011
whel	-14012
▁세월호	-14013
▁Hana	-14014
▁ferry	-14015
▁intended	-14016
▁stronger	-14017
▁Uijeongbu	-14018
▁유사	-14019
odel	-14020
plus	-14021
▁110	-14022
▁음식이	-14023
▁이어진	-14024
rooms	-14025
▁조례에서	-14026
▁systematic	-14027
▁considerable	-14028
▁기무	-14029
▁내지	-14030
▁당한	-14031
▁예외	-14032
▁속도가	-14033
▁visual	-14034
▁fostering	-14035
▁solutions	-14036
▁interviews	-14037
▁entrepreneurs	-14038
He	-14039
▁펴	-14040
곳이	-14041
▁99	-14042
▁몸이	-14043
▁중국과	-14044
▁Enterpr	-14045
▁kitchen	-14046
▁artistic	-14047
▁photograph	-14048
통합	-14049
▁되길	-14050
▁받기	-14051
▁연수	-14052
▁east	-14053
▁dismant	-14054
▁breaking	-14055
▁힐	-14056
카이	-14057
▁승객	-14058
▁방안이	-14059
oseong	-14060
▁공시	-14061
▁방식을	-14062
▁보내는	-14063
▁upgr	-14064
▁인정되는	-14065
▁Winter	-14066
▁61	-14067
▁붕괴	-14068
▁획득	-14069
결과를	-14070
시키기	-14071
▁수행할	-14072
▁역량을	-14073
▁imprison	-14074
▁intensive	-14075
▁값	-14076
바지	-14077
▁종종	-14078
▁국무총	-14079
▁벌이고	-14080
▁소송을	-14081
▁beef	-14082
▁locals	-14083
▁tension	-14084
▁struggle	-14085
영리	-14086
▁언제나	-14087
▁최우수	-14088
ondon	-14089
▁pursue	-14090
▁퇴근	-14091
▁Ban	-14092
▁원인이	-14093
▁의정부	-14094
erous	-14095
▁persu	-14096
▁cutting	-14097
48	-14098
IM	-14099
나게	-14100
밀한	-14101
해줄	-14102
▁Wan	-14103
▁toile	-14104
▁Africa	-14105
▁heating	-14106
▁ministries	-14107
▁훈	-14108
아동	-14109
회로	-14110
▁stamp	-14111
▁Contest	-14112
▁overwhel	-14113
▁Framework	-14114
▁틈	-14115
▁입찰	-14116
도지사	-14117
▁다음에	-14118
▁발견된	-14119
▁수준을	-14120
▁예산이	-14121
▁easing	-14122
ifications	-14123
▁highlight	-14124
▁secondary	-14125
▁Environmental	-14126
bi	-14127
▁벌금	-14128
▁cheer	-14129
▁wealth	-14130
▁shipment	-14131
▁sustainable	-14132
요금	-14133
치에	-14134
▁놀이	-14135
문화재	-14136
gypt	-14137
▁아침에	-14138
▁선정됐다	-14139
▁pedest	-14140
▁academy	-14141
▁당직	-14142
▁댄스	-14143
▁나오지	-14144
▁경기도내	-14145
▁무엇인지	-14146
▁아니지만	-14147
▁어렵다는	-14148
▁attractions	-14149
분석	-14150
ona	-14151
▁여겨	-14152
▁왼쪽	-14153
▁융합	-14154
▁적절	-14155
▁mir	-14156
▁위촉직	-14157
▁이곳은	-14158
▁회의에	-14159
▁netiz	-14160
▁Establ	-14161
화한	-14162
▁불어	-14163
▁시에	-14164
▁쏠리고	-14165
uries	-14166
▁Rail	-14167
▁Hello	-14168
▁otherwise	-14169
▁올랐	-14170
▁음료	-14171
hyuk	-14172
▁엄청난	-14173
▁amaz	-14174
▁받았습니다	-14175
PA	-14176
·18	-14177
▁의회	-14178
▁한마	-14179
▁국민연금	-14180
ya	-14181
마크	-14182
심한	-14183
ech	-14184
▁방해	-14185
▁할지	-14186
▁Fac	-14187
▁alt	-14188
▁(1).	-14189
▁Coast	-14190
▁noodles	-14191
▁collaboration	-14192
▁르	-14193
▁팝	-14194
미는	-14195
파가	-14196
▁Ja	-14197
▁오면	-14198
동조합	-14199
rust	-14200
▁tun	-14201
▁배우고	-14202
▁사건에	-14203
31	-14204
색이	-14205
lar	-14206
unt	-14207
▁광진	-14208
▁아예	-14209
방안을	-14210
폐기물	-14211
▁들어오	-14212
▁병원에	-14213
위원회에	-14214
▁boss	-14215
▁sacr	-14216
▁많습니다	-14217
▁analyzing	-14218
▁아쉽	-14219
▁우울	-14220
▁이주	-14221
▁Ren	-14222
▁2003	-14223
▁이미지를	-14224
▁wastes	-14225
결정	-14226
편이	-14227
▁김용	-14228
▁넓은	-14229
▁몰랐	-14230
▁소설	-14231
▁규모로	-14232
▁사용을	-14233
▁레스토랑	-14234
▁fines	-14235
ponding	-14236
▁finals	-14237
▁explains	-14238
▁manufacturers	-14239
권과	-14240
▁El	-14241
▁강연	-14242
▁구제	-14243
▁뷰티	-14244
▁증언	-14245
▁체납	-14246
▁가격은	-14247
▁협상을	-14248
▁Egypt	-14249
▁bureau	-14250
▁assigned	-14251
체에	-14252
화학	-14253
ivile	-14254
▁magn	-14255
▁anger	-14256
▁overl	-14257
▁summon	-14258
▁reviewed	-14259
양의	-14260
장비	-14261
준이	-14262
하기에	-14263
▁올라가	-14264
▁weapon	-14265
olitical	-14266
▁Various	-14267
▁빵	-14268
▁영역	-14269
▁느끼는	-14270
▁손흥민	-14271
▁지사가	-14272
▁지원하고	-14273
▁reserve	-14274
▁당해	-14275
▁많지	-14276
▁스피	-14277
▁오지	-14278
aser	-14279
▁참가한	-14280
▁찾아가	-14281
mittees	-14282
▁Brexit	-14283
▁Gangdong	-14284
▁collective	-14285
▁restricted	-14286
▁근육	-14287
자료를	-14288
wage	-14289
▁마련한	-14290
▁abandoned	-14291
▁expectation	-14292
사람	-14293
▁과목	-14294
▁김지	-14295
▁대다	-14296
▁진보	-14297
이라서	-14298
▁Mac	-14299
▁Heavy	-14300
▁moves	-14301
▁robot	-14302
▁concrete	-14303
▁consultative	-14304
▁쉬운	-14305
▁우주	-14306
시장의	-14307
▁경우를	-14308
▁(2),	-14309
▁Crit	-14310
▁Myan	-14311
▁다섯	-14312
▁돌봄	-14313
▁창조	-14314
하지는	-14315
▁지적이다	-14316
▁formal	-14317
▁lights	-14318
▁Building	-14319
▁violated	-14320
▁recession	-14321
▁내게	-14322
▁문자	-14323
▁전수	-14324
▁주한	-14325
oses	-14326
▁사업이다	-14327
▁통보하여야	-14328
▁western	-14329
ulpt	-14330
cling	-14331
▁Except	-14332
▁London	-14333
▁booked	-14334
▁pastor	-14335
▁Gyeongju	-14336
가정	-14337
간다	-14338
기반	-14339
ils	-14340
▁앞장	-14341
▁조달	-14342
▁체감	-14343
센터의	-14344
gram	-14345
sequ	-14346
▁보내고	-14347
▁인정할	-14348
▁촉구했다	-14349
▁deceased	-14350
▁certificates	-14351
▁막을	-14352
▁성사	-14353
▁솔루	-14354
▁인명	-14355
▁hik	-14356
▁실시하는	-14357
▁compar	-14358
government	-14359
▁attraction	-14360
낸다	-14361
유산	-14362
▁od	-14363
▁대우	-14364
▁생길	-14365
▁수렴	-14366
▁쓰러	-14367
▁조각	-14368
icks	-14369
▁국무장	-14370
▁끌었다	-14371
▁하여금	-14372
▁담당하는	-14373
▁boast	-14374
▁discover	-14375
여야	-14376
een	-14377
▁유동	-14378
▁탑재	-14379
▁피아	-14380
▁제시한	-14381
▁위원회에	-14382
▁Custom	-14383
▁colorful	-14384
▁democracy	-14385
▁affiliates	-14386
▁impressive	-14387
지검	-14388
▁가요	-14389
▁법안	-14390
▁사례를	-14391
▁stip	-14392
▁Byeong	-14393
▁guilty	-14394
▁Shanghai	-14395
마켓	-14396
▁유망	-14397
▁피곤	-14398
▁env	-14399
▁너무나	-14400
▁입장이	-14401
▁차세대	-14402
▁kids	-14403
▁walls	-14404
▁graduates	-14405
세한	-14406
▁그날	-14407
▁기아	-14408
▁산정	-14409
▁최악	-14410
▁fab	-14411
▁끝나고	-14412
▁작품이	-14413
▁현재의	-14414
친다	-14415
보세요	-14416
▁오른쪽	-14417
▁준비한	-14418
▁Play	-14419
▁늘어나고	-14420
gyu	-14421
▁둘째	-14422
▁멀리	-14423
▁한해	-14424
seon	-14425
▁친구들이	-14426
▁divid	-14427
ordinary	-14428
▁intense	-14429
▁reflects	-14430
소통	-14431
▁누적	-14432
chun	-14433
▁Tot	-14434
▁row	-14435
▁발전에	-14436
▁아니고	-14437
▁아무런	-14438
▁요청한	-14439
▁계속해서	-14440
▁rumors	-14441
▁62	-14442
▁진정	-14443
bing	-14444
print	-14445
▁colle	-14446
▁wound	-14447
▁tradition	-14448
▁preferential	-14449
inct	-14450
▁높았다	-14451
lomer	-14452
▁equal	-14453
▁shortly	-14454
뱅크	-14455
▁객관	-14456
▁성추	-14457
▁미얀마	-14458
▁Mich	-14459
▁poet	-14460
▁England	-14461
간에	-14462
천여	-14463
▁PD	-14464
▁끊임	-14465
▁말할	-14466
made	-14467
▁전략을	-14468
▁Span	-14469
계에	-14470
배우	-14471
차량	-14472
▁전직	-14473
▁준다	-14474
▁프레	-14475
었으며	-14476
▁무대를	-14477
agues	-14478
▁pace	-14479
▁소비자가	-14480
▁faces	-14481
▁indoor	-14482
bak	-14483
▁74	-14484
▁무죄	-14485
▁얻은	-14486
기간을	-14487
usan	-14488
▁hate	-14489
편의	-14490
▁탄력	-14491
▁bot	-14492
▁적합한	-14493
▁하노이	-14494
▁제외하고는	-14495
pection	-14496
▁titled	-14497
▁Myanmar	-14498
문의	-14499
ECD	-14500
▁전후	-14501
▁fare	-14502
▁왔습니다	-14503
▁종전선언	-14504
▁parks	-14505
▁turns	-14506
▁Students	-14507
▁revitalization	-14508
▁시중	-14509
▁은퇴	-14510
▁파괴	-14511
라스틱	-14512
▁강화를	-14513
▁다수의	-14514
▁보여준다	-14515
▁사업으로	-14516
▁desper	-14517
▁pending	-14518
▁알리는	-14519
▁cycle	-14520
▁marked	-14521
▁indirect	-14522
▁superior	-14523
▁demanding	-14524
▁Investigation	-14525
▁켜	-14526
군에	-14527
▁무기	-14528
▁부르	-14529
▁외무	-14530
▁취급	-14531
하나요	-14532
▁당연히	-14533
▁이미지	-14534
▁들어가는	-14535
▁마련했다	-14536
▁측면에서	-14537
▁cargo	-14538
▁bullet	-14539
▁Football	-14540
▁contained	-14541
▁delegation	-14542
▁능력	-14543
▁완전	-14544
▁입금	-14545
▁조명	-14546
어린이	-14547
회에는	-14548
acle	-14549
beom	-14550
▁targets	-14551
견이	-14552
준비	-14553
▁생일	-14554
▁치킨	-14555
았다고	-14556
▁사용하고	-14557
iosity	-14558
▁마찬가지로	-14559
▁happens	-14560
▁solving	-14561
▁쥐	-14562
케어	-14563
▁장난	-14564
정책을	-14565
▁현재는	-14566
▁stom	-14567
▁aggress	-14568
▁alliance	-14569
▁furniture	-14570
▁incentives	-14571
▁promotional	-14572
▁끈다	-14573
▁달아	-14574
▁주재	-14575
▁창립	-14576
▁pad	-14577
▁방법은	-14578
▁우즈베	-14579
▁crew	-14580
▁요청했다	-14581
▁intern	-14582
▁Library	-14583
국장	-14584
▁5%	-14585
▁김해	-14586
▁다운	-14587
▁테러	-14588
사회의	-14589
amun	-14590
▁기관이	-14591
▁대체로	-14592
▁사용해	-14593
▁자료에	-14594
▁후에는	-14595
agram	-14596
▁impe	-14597
▁equity	-14598
▁minimize	-14599
▁philosop	-14600
▁software	-14601
▁talented	-14602
hi	-14603
May	-14604
ady	-14605
▁메모	-14606
▁lov	-14607
▁본격화	-14608
되었으며	-14609
▁확인했다	-14610
▁Woori	-14611
▁restructuring	-14612
▁웨	-14613
정비	-14614
파이	-14615
uan	-14616
▁중장	-14617
▁함은	-14618
구에서	-14619
용으로	-14620
opol	-14621
▁	-14622
e	-14623
t	-14624
a	-14625
o	-14626
n	-14627
i	-14628
r	-14629
s	-14630
h	-14631
l	-14632
d	-14633
c	-14634
u	-14635
m	-14636
f	-14637
p	-14638
g	-14639
.	-14640
y	-14641
w	-14642
,	-14643
이	-14644
b	-14645
다	-14646
v	-14647
는	-14648
에	-14649
을	-14650
가	-14651
의	-14652
하	-14653
k	-14654
지	-14655
한	-14656
고	-14657
로	-14658
기	-14659
사	-14660
서	-14661
0	-14662
1	-14663
I	-14664
은	-14665
를	-14666
도	-14667
-	-14668
T	-14669
시	-14670
대	-14671
해	-14672
S	-14673
인	-14674
수	-14675
2	-14676
있	-14677
자	-14678
정	-14679
어	-14680
C	-14681
으	-14682
A	-14683
장	-14684
제	-14685
리	-14686
원	-14687
부	-14688
'	-14689
전	-14690
"	-14691
x	-14692
K	-14693
나	-14694
과	-14695
들	-14696
일	-14697
아	-14698
주	-14699
상	-14700
요	-14701
국	-14702
보	-14703
니	-14704
P	-14705
경	-14706
했	-14707
라	-14708
위	-14709
G	-14710
M	-14711
구	-14712
여	-14713
관	-14714
게	-14715
3	-14716
만	-14717
적	-14718
공	-14719
스	-14720
그	-14721
(	-14722
)	-14723
것	-14724
성	-14725
j	-14726
회	-14727
면	-14728
5	-14729
업	-14730
조	-14731
소	-14732
문	-14733
동	-14734
신	-14735
D	-14736
화	-14737
등	-14738
비	-14739
우	-14740
중	-14741
할	-14742
내	-14743
H	-14744
4	-14745
진	-14746
계	-14747
W	-14748
개	-14749
당	-14750
B	-14751
용	-14752
선	-14753
와	-14754
무	-14755
J	-14756
N	-14757
행	-14758
z	-14759
유	-14760
되	-14761
안	-14762
미	-14763
E	-14764
9	-14765
연	-14766
영	-14767
6	-14768
생	-14769
세	-14770
명	-14771
거	-14772
통	-14773
간	-14774
교	-14775
?	-14776
마	-14777
8	-14778
산	-14779
재	-14780
오	-14781
방	-14782
7	-14783
모	-14784
발	-14785
야	-14786
L	-14787
F	-14788
실	-14789
치	-14790
년	-14791
습	-14792
금	-14793
된	-14794
O	-14795
운	-14796
체	-14797
단	-14798
분	-14799
트	-14800
’	-14801
청	-14802
입	-14803
“	-14804
드	-14805
터	-14806
‘	-14807
학	-14808
R	-14809
데	-14810
역	-14811
었	-14812
”	-14813
차	-14814
민	-14815
려	-14816
q	-14817
며	-14818
U	-14819
식	-14820
건	-14821
출	-14822
·	-14823
예	-14824
설	-14825
Y	-14826
물	-14827
까	-14828
강	-14829
호	-14830
난	-14831
심	-14832
현	-14833
결	-14834
반	-14835
저	-14836
음	-14837
법	-14838
감	-14839
각	-14840
최	-14841
후	-14842
직	-14843
말	-14844
때	-14845
러	-14846
없	-14847
합	-14848
않	-14849
표	-14850
바	-14851
력	-14852
점	-14853
작	-14854
월	-14855
매	-14856
남	-14857
양	-14858
임	-14859
따	-14860
속	-14861
받	-14862
노	-14863
히	-14864
포	-14865
불	-14866
번	-14867
록	-14868
%	-14869
품	-14870
더	-14871
달	-14872
추	-14873
르	-14874
항	-14875
김	-14876
함	-14877
프	-14878
두	-14879
던	-14880
확	-14881
타	-14882
처	-14883
특	-14884
급	-14885
본	-14886
배	-14887
약	-14888
울	-14889
많	-14890
활	-14891
북	-14892
종	-14893
준	-14894
근	-14895
외	-14896
른	-14897
증	-14898
능	-14899
료	-14900
권	-14901
판	-14902
담	-14903
석	-14904
별	-14905
래	-14906
환	-14907
목	-14908
평	-14909
파	-14910
필	-14911
집	-14912
육	-14913
람	-14914
같	-14915
및	-14916
됐	-14917
크	-14918
참	-14919
피	-14920
열	-14921
련	-14922
규	-14923
았	-14924
올	-14925
질	-14926
천	-14927
형	-14928
V	-14929
태	-14930
협	-14931
복	-14932
책	-14933
날	-14934
격	-14935
알	-14936
술	-14937
겠	-14938
광	-14939
령	-14940
변	-14941
초	-14942
투	-14943
검	-14944
박	-14945
토	-14946
린	-14947
디	-14948
향	-14949
너	-14950
승	-14951
군	-14952
찰	-14953
될	-14954
좋	-14955
온	-14956
축	-14957
송	-14958
험	-14959
레	-14960
독	-14961
였	-14962
카	-14963
버	-14964
편	-14965
밝	-14966
언	-14967
네	-14968
접	-14969
께	-14970
씨	-14971
총	-14972
립	-14973
또	-14974
절	-14975
황	-14976
란	-14977
류	-14978
높	-14979
못	-14980
취	-14981
늘	-14982
량	-14983
졌	-14984
새	-14985
망	-14986
창	-14987
례	-14988
획	-14989
든	-14990
/	-14991
곳	-14992
택	-14993
억	-14994
혔	-14995
루	-14996
앞	-14997
길	-14998
친	-14999
론	-15000
살	-15001
병	-15002
족	-15003
럼	-15004
코	-15005
견	-15006
티	-15007
범	-15008
악	-15009
메	-15010
맞	-15011
키	-15012
:	-15013
워	-15014
손	-15015
돼	-15016
줄	-15017
벌	-15018
채	-15019
극	-15020
농	-15021
순	-15022
돌	-15023
존	-15024
잘	-15025
객	-15026
애	-15027
폭	-15028
런	-15029
브	-15030
느	-15031
랑	-15032
희	-15033
져	-15034
페	-15035
테	-15036
름	-15037
충	-15038
센	-15039
걸	-15040
왔	-15041
응	-15042
움	-15043
율	-15044
철	-15045
갈	-15046
측	-15047
효	-15048
완	-15049
막	-15050
찾	-15051
뒤	-15052
침	-15053
락	-15054
글	-15055
싶	-15056
팀	-15057
색	-15058
쟁	-15059
커	-15060
삼	-15061
플	-15062
큰	-15063
누	-15064
베	-15065
겨	-15066
백	-15067
착	-15068
득	-15069
녀	-15070
넘	-15071
융	-15072
허	-15073
탁	-15074
님	-15075
액	-15076
익	-15077
논	-15078
즈	-15079
림	-15080
탄	-15081
머	-15082
볼	-15083
긴	-15084
잡	-15085
패	-15086
폐	-15087
먹	-15088
홍	-15089
났	-15090
케	-15091
렸	-15092
먼	-15093
쳐	-15094
징	-15095
골	-15096
층	-15097
션	-15098
얼	-15099
눈	-15100
블	-15101
엔	-15102
봉	-15103
혹	-15104
큼	-15105
빠	-15106
혁	-15107
핵	-15108
쪽	-15109
답	-15110
릴	-15111
렇	-15112
랜	-15113
힘	-15114
촉	-15115
풍	-15116
∼	-15117
휴	-15118
혼	-15119
률	-15120
밀	-15121
램	-15122
흥	-15123
갖	-15124
럽	-15125
놓	-15126
끝	-15127
퍼	-15128
츠	-15129
째	-15130
롯	-15131
염	-15132
귀	-15133
몰	-15134
첫	-15135
죄	-15136
」	-15137
「	-15138
널	-15139
탈	-15140
쓰	-15141
뉴	-15142
밖	-15143
균	-15144
콘	-15145
&	-15146
엄	-15147
숙	-15148
X	-15149
훈	-15150
찬	-15151
클	-15152
떤	-15153
암	-15154
혜	-15155
납	-15156
룹	-15157
압	-15158
욱	-15159
앙	-15160
뿐	-15161
낮	-15162
곡	-15163
념	-15164
혐	-15165
윤	-15166
뤄	-15167
템	-15168
떻	-15169
떠	-15170
잠	-15171
떨	-15172
퇴	-15173
돈	-15174
굴	-15175
즐	-15176
낸	-15177
팅	-15178
혀	-15179
닌	-15180
붙	-15181
텔	-15182
풀	-15183
쉽	-15184
좌	-15185
폰	-15186
꾸	-15187
칙	-15188
팬	-15189
냐	-15190
끌	-15191
냈	-15192
갔	-15193
좀	-15194
써	-15195
놀	-15196
셔	-15197
끼	-15198
엇	-15199
벤	-15200
몇	-15201
맛	-15202
둘	-15203
뜻	-15204
왕	-15205
벽	-15206
캐	-15207
십	-15208
갑	-15209
됩	-15210
넷	-15211
Z	-15212
왜	-15213
켜	-15214
덕	-15215
략	-15216
핑	-15217
둔	-15218
숨	-15219
듯	-15220
욕	-15221
쇼	-15222
Q	-15223
맡	-15224
얻	-15225
몸	-15226
헌	-15227
컨	-15228
싱	-15229
텐	-15230
빈	-15231
펼	-15232
궁	-15233
찍	-15234
틀	-15235
팔	-15236
짜	-15237
웃	-15238
봐	-15239
슬	-15240
웨	-15241
봤	-15242
셨	-15243
싸	-15244
델	-15245
렵	-15246
링	-15247
슈	-15248
롭	-15249
홈	-15250
섰	-15251
칠	-15252
힌	-15253
첨	-15254
밤	-15255
겼	-15256
즌	-15257
죽	-15258
쳤	-15259
삶	-15260
빨	-15261
웠	-15262
쉬	-15263
옥	-15264
랐	-15265
휘	-15266
잔	-15267
랍	-15268
뜨	-15269
낙	-15270
촌	-15271
늦	-15272
척	-15273
깨	-15274
춘	-15275
꿈	-15276
킨	-15277
곤	-15278
뛰	-15279
맹	-15280
폼	-15281
겁	-15282
겪	-15283
흐	-15284
춰	-15285
뢰	-15286
슨	-15287
녹	-15288
털	-15289
씩	-15290
턴	-15291
홀	-15292
캠	-15293
빌	-15294
뮤	-15295
릭	-15296
죠	-15297
엘	-15298
깊	-15299
넣	-15300
촬	-15301
꽃	-15302
렌	-15303
탕	-15304
킹	-15305
푸	-15306
솔	-15307
춤	-15308
쯤	-15309
뷰	-15310
칭	-15311
혈	-15312
맥	-15313
즘	-15314
쿠	-15315
콩	-15316
컵	-15317
얘	-15318
흡	-15319
콜	-15320
줘	-15321
빛	-15322
즉	-15323
씀	-15324
$	-15325
탑	-15326
낼	-15327
믿	-15328
흔	-15329
랫	-15330
섬	-15331
듣	-15332
픽	-15333
컬	-15334
컴	-15335
헤	-15336
섭	-15337
짐	-15338
;	-15339
짓	-15340
잇	-15341
젝	-15342
닥	-15343
젊	-15344
렴	-15345
읽	-15346
옷	-15347
꼭	-15348
값	-15349
녁	-15350
맨	-15351
괴	-15352
걱	-15353
밥	-15354
벨	-15355
찮	-15356
졸	-15357
닝	-15358
봄	-15359
흘	-15360
>	-15361
딸	-15362
꼽	-15363
<	-15364
겸	-15365
냥	-15366
딩	-15367
곧	-15368
쇄	-15369
켓	-15370
끄	-15371
킬	-15372
핀	-15373
긍	-15374
넓	-15375
괜	-15376
폴	-15377
줬	-15378
땅	-15379
튜	-15380
펴	-15381
멤	-15382
덧	-15383
랙	-15384
빙	-15385
끊	-15386
뇌	-15387
!	-15388
잃	-15389
꺼	-15390
펀	-15391
셀	-15392
슷	-15393
픈	-15394
앉	-15395
빅	-15396
켰	-15397
벗	-15398
므	-15399
퓨	-15400
괄	-15401
냉	-15402
묘	-15403
옮	-15404
칼	-15405
멘	-15406
옆	-15407
렉	-15408
짝	-15409
탐	-15410
멀	-15411
빼	-15412
쌓	-15413
쏟	-15414
셈	-15415
싼	-15416
묻	-15417
~	-15418
몽	-15419
듭	-15420
닐	-15421
륙	-15422
끈	-15423
렀	-15424
럭	-15425
헬	-15426
앱	-15427
렬	-15428
뭐	-15429
쁘	-15430
돕	-15431
삭	-15432
뒷	-15433
쓸	-15434
톡	-15435
앤	-15436
덜	-15437
팝	-15438
깔	-15439
릉	-15440
씬	-15441
톤	-15442
샤	-15443
쾌	-15444
묵	-15445
둥	-15446
낌	-15447
뀌	-15448
롱	-15449
껴	-15450
앨	-15451
샘	-15452
릿	-15453
룸	-15454
훼	-15455
쓴	-15456
펜	-15457
힐	-15458
틱	-15459
끔	-15460
럴	-15461
튼	-15462
맺	-15463
뿌	-15464
멕	-15465
짧	-15466
웅	-15467
젠	-15468
탓	-15469
엑	-15470
쁜	-15471
훨	-15472
빚	-15473
찌	-15474
멋	-15475
쏠	-15476
큐	-15477
걷	-15478
쌀	-15479
텍	-15480
잉	-15481
읍	-15482
멸	-15483
뽑	-15484
됨	-15485
꼬	-15486
셜	-15487
봇	-15488
틴	-15489
웹	-15490
잖	-15491
갤	-15492
쌍	-15493
챙	-15494
섯	-15495
붕	-15496
닉	-15497
뷔	-15498
밑	-15499
댄	-15500
낭	-15501
옛	-15502
뱅	-15503
잊	-15504
숲	-15505
넥	-15506
몬	-15507
줍	-15508
똑	-15509
핸	-15510
싫	-15511
밴	-15512
왼	-15513
뚜	-15514
닫	-15515
덴	-15516
칸	-15517
슴	-15518
콤	-15519
곽	-15520
댓	-15521
롤	-15522
낄	-15523
꼼	-15524
챔	-15525
밸	-15526
듀	-15527
돋	-15528
훌	-15529
떡	-15530
룬	-15531
겐	-15532
굉	-15533
옵	-15534
딜	-15535
꿔	-15536
얀	-15537
멈	-15538
겹	-15539
흑	-15540
톱	-15541
횡	-15542
딱	-15543
벼	-15544
녕	-15545
컸	-15546
좁	-15547
룡	-15548
팩	-15549
띄	-15550
쇠	-15551
눔	-15552
놨	-15553
닭	-15554
샌	-15555
흉	-15556
눠	-15557
셋	-15558
빗	-15559
랩	-15560
듬	-15561
꾼	-15562
엠	-15563
닷	-15564
멜	-15565
깝	-15566
뒀	-15567
굳	-15568
윈	-15569
젤	-15570
멍	-15571
밍	-15572
빵	-15573
닙	-15574
퀴	-15575
팎	-15576
밭	-15577
팽	-15578
륭	-15579
첩	-15580
[	-15581
엽	-15582
릅	-15583
]	-15584
헨	-15585
깜	-15586
뇨	-15587
쥐	-15588
덤	-15589
썼	-15590
캔	-15591
꿀	-15592
깃	-15593
냄	-15594
븐	-15595
튀	-15596
끗	-15597
쿄	-15598
낳	-15599
숫	-15600
랄	-15601
덮	-15602
랭	-15603
숍	-15604
껏	-15605
밟	-15606
덩	-15607
뭔	-15608
깐	-15609
렷	-15610
닿	-15611
틈	-15612
쿨	-15613
뼈	-15614
눌	-15615
옹	-15616
셉	-15617
룰	-15618
섞	-15619
꼈	-15620
é	-15621
묶	-15622
픔	-15623
넌	-15624
렘	-15625
ᆞ	-15626
떼	-15627
꽤	-15628
볶	-15629
『	-15630
』	-15631
룩	-15632
엉	-15633
췄	-15634
봅	-15635
앗	-15636
낀	-15637
셰	-15638
틸	-15639
붉	-15640
맑	-15641
쁨	-15642
턱	-15643
롬	-15644
숭	-15645
벅	-15646
흰	-15647
꺾	-15648
샀	-15649
탱	-15650
믹	-15651
릇	-15652
썬	-15653
휩	-15654
맘	-15655
곰	-15656
곱	-15657
띠	-15658
뻐	-15659
늬	-15660
솟	-15661
궐	-15662
랬	-15663
슛	-15664
땀	-15665
잦	-15666
쏘	-15667
칫	-15668
칩	-15669
윗	-15670
낯	-15671
킴	-15672
펠	-15673
°	-15674
뚝	-15675
렛	-15676
잎	-15677
넉	-15678
뚫	-15679
냅	-15680
딘	-15681
갱	-15682
쫓	-15683
굿	-15684
릎	-15685
횟	-15686
앓	-15687
렁	-15688
곁	-15689
맵	-15690
탠	-15691
맙	-15692
긋	-15693
햇	-15694
짚	-15695
캘	-15696
킥	-15697
낫	-15698
쩔	-15699
뀐	-15700
쩍	-15701
컷	-15702
故	-15703
짙	-15704
윌	-15705
낚	-15706
섹	-15707
뤘	-15708
몫	-15709
엿	-15710
뻔	-15711
밌	-15712
딪	-15713
`	-15714
삽	-15715
텀	-15716
닛	-15717
쩌	-15718
뭉	-15719
펌	-15720
툼	-15721
뉘	-15722
햄	-15723
톨	-15724
륜	-15725
흙	-15726
굽	-15727
샷	-15728
툰	-15729
쿼	-15730
켈	-15731
붐	-15732
겉	-15733
궤	-15734
젖	-15735
닮	-15736
쉼	-15737
옳	-15738
끓	-15739
